{
  "version": "1.0",
  "truncation": null,
  "padding": null,
  "added_tokens": [
    {
      "id": 0,
      "content": "[PAD]",
      "single_word": false,
      "lstrip": false,
      "rstrip": false,
      "normalized": false,
      "special": true
    },
    {
      "id": 1,
      "content": "[BOS]",
      "single_word": false,
      "lstrip": false,
      "rstrip": false,
      "normalized": false,
      "special": true
    },
    {
      "id": 2,
      "content": "[EOS]",
      "single_word": false,
      "lstrip": false,
      "rstrip": false,
      "normalized": false,
      "special": true
    },
    {
      "id": 3,
      "content": "[UNK]",
      "single_word": false,
      "lstrip": false,
      "rstrip": false,
      "normalized": false,
      "special": true
    }
  ],
  "normalizer": {
    "type": "NFKC"
  },
  "pre_tokenizer": {
    "type": "ByteLevel",
    "add_prefix_space": true,
    "trim_offsets": true,
    "use_regex": true
  },
  "post_processor": null,
  "decoder": {
    "type": "ByteLevel",
    "add_prefix_space": true,
    "trim_offsets": true,
    "use_regex": true
  },
  "model": {
    "type": "BPE",
    "dropout": null,
    "unk_token": "[UNK]",
    "continuing_subword_prefix": null,
    "end_of_word_suffix": null,
    "fuse_unk": false,
    "byte_fallback": false,
    "ignore_merges": false,
    "vocab": {
      "[PAD]": 0,
      "[BOS]": 1,
      "[EOS]": 2,
      "[UNK]": 3,
      "!": 4,
      "\"": 5,
      "#": 6,
      "$": 7,
      "%": 8,
      "&": 9,
      "'": 10,
      "(": 11,
      ")": 12,
      "*": 13,
      "+": 14,
      ",": 15,
      "-": 16,
      ".": 17,
      "/": 18,
      "0": 19,
      "1": 20,
      "2": 21,
      "3": 22,
      "4": 23,
      "5": 24,
      "6": 25,
      "7": 26,
      "8": 27,
      "9": 28,
      ":": 29,
      ";": 30,
      "<": 31,
      "=": 32,
      ">": 33,
      "?": 34,
      "@": 35,
      "A": 36,
      "B": 37,
      "C": 38,
      "D": 39,
      "E": 40,
      "F": 41,
      "G": 42,
      "H": 43,
      "I": 44,
      "J": 45,
      "K": 46,
      "L": 47,
      "M": 48,
      "N": 49,
      "O": 50,
      "P": 51,
      "Q": 52,
      "R": 53,
      "S": 54,
      "T": 55,
      "U": 56,
      "V": 57,
      "W": 58,
      "X": 59,
      "Y": 60,
      "Z": 61,
      "[": 62,
      "\\": 63,
      "]": 64,
      "^": 65,
      "_": 66,
      "`": 67,
      "a": 68,
      "b": 69,
      "c": 70,
      "d": 71,
      "e": 72,
      "f": 73,
      "g": 74,
      "h": 75,
      "i": 76,
      "j": 77,
      "k": 78,
      "l": 79,
      "m": 80,
      "n": 81,
      "o": 82,
      "p": 83,
      "q": 84,
      "r": 85,
      "s": 86,
      "t": 87,
      "u": 88,
      "v": 89,
      "w": 90,
      "x": 91,
      "y": 92,
      "z": 93,
      "|": 94,
      "}": 95,
      "~": 96,
      "¡": 97,
      "¢": 98,
      "£": 99,
      "¤": 100,
      "¥": 101,
      "¦": 102,
      "§": 103,
      "¨": 104,
      "©": 105,
      "ª": 106,
      "«": 107,
      "¬": 108,
      "®": 109,
      "¯": 110,
      "°": 111,
      "±": 112,
      "²": 113,
      "³": 114,
      "´": 115,
      "µ": 116,
      "¶": 117,
      "·": 118,
      "¸": 119,
      "¹": 120,
      "º": 121,
      "»": 122,
      "¼": 123,
      "½": 124,
      "¾": 125,
      "¿": 126,
      "Â": 127,
      "Ã": 128,
      "Ä": 129,
      "Å": 130,
      "Æ": 131,
      "Ç": 132,
      "È": 133,
      "É": 134,
      "Ê": 135,
      "Ë": 136,
      "Ì": 137,
      "Í": 138,
      "Î": 139,
      "Ï": 140,
      "Ð": 141,
      "Ñ": 142,
      "Ò": 143,
      "Ó": 144,
      "Ô": 145,
      "Õ": 146,
      "Ö": 147,
      "×": 148,
      "Ø": 149,
      "Ù": 150,
      "Ú": 151,
      "Û": 152,
      "Ü": 153,
      "ß": 154,
      "à": 155,
      "á": 156,
      "â": 157,
      "ã": 158,
      "ä": 159,
      "å": 160,
      "æ": 161,
      "ç": 162,
      "è": 163,
      "é": 164,
      "ê": 165,
      "ë": 166,
      "ì": 167,
      "í": 168,
      "î": 169,
      "ï": 170,
      "ð": 171,
      "Ā": 172,
      "Ă": 173,
      "ă": 174,
      "ą": 175,
      "Ć": 176,
      "ć": 177,
      "Ċ": 178,
      "č": 179,
      "Đ": 180,
      "Ē": 181,
      "Ę": 182,
      "ę": 183,
      "Ě": 184,
      "ě": 185,
      "Ġ": 186,
      "Ģ": 187,
      "ģ": 188,
      "Ĥ": 189,
      "ĥ": 190,
      "Ħ": 191,
      "ħ": 192,
      "Ĩ": 193,
      "ĩ": 194,
      "Ī": 195,
      "ī": 196,
      "Ĭ": 197,
      "ĭ": 198,
      "Į": 199,
      "į": 200,
      "İ": 201,
      "ı": 202,
      "Ĳ": 203,
      "ĳ": 204,
      "Ĵ": 205,
      "ĵ": 206,
      "Ķ": 207,
      "ķ": 208,
      "ĸ": 209,
      "Ĺ": 210,
      "ĺ": 211,
      "Ļ": 212,
      "ļ": 213,
      "Ľ": 214,
      "ľ": 215,
      "Ŀ": 216,
      "ŀ": 217,
      "Ł": 218,
      "ł": 219,
      "Ń": 220,
      "Ġt": 221,
      "Ġa": 222,
      "in": 223,
      "he": 224,
      "re": 225,
      "on": 226,
      "Ġthe": 227,
      "er": 228,
      "Ġs": 229,
      "Ġw": 230,
      "Ġo": 231,
      "at": 232,
      "Ġc": 233,
      "nd": 234,
      "it": 235,
      "ou": 236,
      "or": 237,
      "es": 238,
      "is": 239,
      "en": 240,
      "Ġf": 241,
      "Ġp": 242,
      "Ġb": 243,
      "ing": 244,
      "an": 245,
      "ed": 246,
      "Ġto": 247,
      "al": 248,
      "Ġm": 249,
      "Ġand": 250,
      "ar": 251,
      "Ġin": 252,
      "Ġof": 253,
      "Ġd": 254,
      "ic": 255,
      "le": 256,
      "ion": 257,
      "om": 258,
      "Ġh": 259,
      "as": 260,
      "Ġth": 261,
      "ll": 262,
      "Ġy": 263,
      "ent": 264,
      "Ġl": 265,
      "ve": 266,
      "Ġe": 267,
      "ro": 268,
      "Ġre": 269,
      "ĠI": 270,
      "ĠT": 271,
      "st": 272,
      "Ġn": 273,
      "Ġyou": 274,
      "ct": 275,
      "Ġg": 276,
      "ly": 277,
      "et": 278,
      "âĢ": 279,
      "Ġis": 280,
      "Ġbe": 281,
      "Ġfor": 282,
      "ĠS": 283,
      "ut": 284,
      "ĠA": 285,
      "ot": 286,
      "Ġon": 287,
      "id": 288,
      "ur": 289,
      "ow": 290,
      "ay": 291,
      "us": 292,
      "ce": 293,
      "ĠC": 294,
      "im": 295,
      "ig": 296,
      "ch": 297,
      "ra": 298,
      "ver": 299,
      "ith": 300,
      "ation": 301,
      "Ġthat": 302,
      "il": 303,
      "Ġst": 304,
      "ol": 305,
      "Ġwith": 306,
      "ad": 307,
      "am": 308,
      "Ġit": 309,
      "ir": 310,
      "ĠM": 311,
      "se": 312,
      "ĠThe": 313,
      "Ġwe": 314,
      "âĢĻ": 315,
      "Ġpro": 316,
      "ĠW": 317,
      "Ġan": 318,
      "ill": 319,
      "Ġas": 320,
      "ĠP": 321,
      "ĠB": 322,
      "Ġare": 323,
      "Ġhe": 324,
      "ers": 325,
      "Ġwh": 326,
      "if": 327,
      "un": 328,
      "Ġha": 329,
      "ke": 330,
      "ge": 331,
      "Ġcon": 332,
      "Ġor": 333,
      "ter": 334,
      "ess": 335,
      "ul": 336,
      "Ġcom": 337,
      "oo": 338,
      "ate": 339,
      "ĠH": 340,
      "pp": 341,
      "her": 342,
      "ment": 343,
      "ĠD": 344,
      "ld": 345,
      "est": 346,
      "ĠF": 347,
      "ab": 348,
      "Ġyour": 349,
      "Ġde": 350,
      "Ġat": 351,
      "Ġse": 352,
      "ore": 353,
      "Ġex": 354,
      "ri": 355,
      "ac": 356,
      "rom": 357,
      "Ġne": 358,
      "igh": 359,
      "pe": 360,
      "ure": 361,
      "qu": 362,
      "ist": 363,
      "ort": 364,
      "ĠR": 365,
      "ity": 366,
      "Ġ1": 367,
      "ant": 368,
      "Ġv": 369,
      "Ġhave": 370,
      "ĠL": 371,
      "ive": 372,
      "čĊ": 373,
      "Ġwas": 374,
      "Ġ2": 375,
      "um": 376,
      "Ġcan": 377,
      "art": 378,
      "ust": 379,
      "ĠE": 380,
      "ĠG": 381,
      "Ġ(": 382,
      "Ġus": 383,
      "op": 384,
      "ain": 385,
      "Ġfrom": 386,
      "em": 387,
      "Ġal": 388,
      "Ġthis": 389,
      "Ġr": 390,
      "th": 391,
      "ĠN": 392,
      "Ġsh": 393,
      "ies": 394,
      "oc": 395,
      "Ġch": 396,
      "os": 397,
      "Ġnot": 398,
      "Ġwill": 399,
      "Ġsu": 400,
      "ĠO": 401,
      "Ġby": 402,
      "el": 403,
      "nt": 404,
      "and": 405,
      "ight": 406,
      "Ġu": 407,
      "ome": 408,
      "Ġle": 409,
      "all": 410,
      "ard": 411,
      "res": 412,
      "ĠâĢ": 413,
      "ud": 414,
      "out": 415,
      "iv": 416,
      "ost": 417,
      "Ġwor": 418,
      "our": 419,
      "ould": 420,
      "Ġab": 421,
      "ial": 422,
      "od": 423,
      "Ġall": 424,
      "ie": 425,
      "ect": 426,
      "Ġpl": 427,
      "per": 428,
      "ide": 429,
      "gh": 430,
      "Ġdo": 431,
      "rou": 432,
      "ĠTh": 433,
      "red": 434,
      "ine": 435,
      "Ġcomp": 436,
      "ast": 437,
      "king": 438,
      "Ġma": 439,
      "Ġj": 440,
      "ice": 441,
      "age": 442,
      "ally": 443,
      "pt": 444,
      "Ġad": 445,
      "ear": 446,
      "Ġk": 447,
      "Ġhas": 448,
      "Ġwhe": 449,
      "te": 450,
      "ĠJ": 451,
      "00": 452,
      "ions": 453,
      "ĠIn": 454,
      "able": 455,
      "Ġen": 456,
      "ks": 457,
      "ag": 458,
      "ther": 459,
      "Ġme": 460,
      "ff": 461,
      "Ġbut": 462,
      "ich": 463,
      "Ġso": 464,
      "Ġout": 465,
      "ip": 466,
      "are": 467,
      "ind": 468,
      "ĠU": 469,
      "Ġup": 470,
      "very": 471,
      "Ġour": 472,
      "ated": 473,
      "og": 474,
      "Ġtheir": 475,
      "one": 476,
      "Ġmore": 477,
      "ry": 478,
      "Ġcl": 479,
      "Ġte": 480,
      "ime": 481,
      "cc": 482,
      "du": 483,
      "Ġthey": 484,
      "Ġim": 485,
      "ĠY": 486,
      "ite": 487,
      "iz": 488,
      "Ġmy": 489,
      "ong": 490,
      "pl": 491,
      "so": 492,
      "act": 493,
      "orm": 494,
      "ood": 495,
      "'s": 496,
      "Ġcont": 497,
      "ous": 498,
      "Ġone": 499,
      "ĠčĊ": 500,
      "ance": 501,
      "ans": 502,
      "ack": 503,
      "ike": 504,
      "ib": 505,
      "Ġman": 506,
      "Ġun": 507,
      "ign": 508,
      "Ġinc": 509,
      "Ġfe": 510,
      "Ġwhich": 511,
      "ru": 512,
      "Ġapp": 513,
      "Ġres": 514,
      "Ġabout": 515,
      "ĠIt": 516,
      "ult": 517,
      "ire": 518,
      "reat": 519,
      "ĠWe": 520,
      "Ġoff": 521,
      "Ġqu": 522,
      "ations": 523,
      "Ġper": 524,
      "ase": 525,
      "ace": 526,
      "Ġwho": 527,
      "ail": 528,
      "Ġalso": 529,
      "ia": 530,
      "ĠK": 531,
      "Ġany": 532,
      "erv": 533,
      "Ġgo": 534,
      "Ġtime": 535,
      "Ġother": 536,
      "Ġ20": 537,
      "ree": 538,
      "ach": 539,
      "..": 540,
      "ame": 541,
      "ical": 542,
      "ber": 543,
      "form": 544,
      "ass": 545,
      "ap": 546,
      "Ġint": 547,
      "vel": 548,
      "ĠThis": 549,
      "ven": 550,
      "ile": 551,
      "Ġdis": 552,
      "Ġyear": 553,
      "ary": 554,
      "ays": 555,
      "Ġget": 556,
      "Ġlike": 557,
      "Ġpart": 558,
      "Ġsa": 559,
      "ount": 560,
      "ĠSt": 561,
      "Ġsome": 562,
      "Ġsp": 563,
      "ep": 564,
      "ction": 565,
      "ence": 566,
      "Ġta": 567,
      "ĠâĢľ": 568,
      "ents": 569,
      "ue": 570,
      "ook": 571,
      "ĠV": 572,
      "ition": 573,
      "now": 574,
      "ove": 575,
      "Ġthem": 576,
      "Ġnew": 577,
      "âĢĿ": 578,
      "Ġneed": 579,
      "ub": 580,
      "fe": 581,
      "Ġwhen": 582,
      "Ġ3": 583,
      "Ġhis": 584,
      "ors": 585,
      "ĠCh": 586,
      "Ġtra": 587,
      "Ġ\"": 588,
      "ord": 589,
      "Ġspe": 590,
      "Ġover": 591,
      "ress": 592,
      "Ġrec": 593,
      "Ġif": 594,
      "ings": 595,
      "Ġar": 596,
      "Ġthere": 597,
      "Ġbeen": 598,
      "ick": 599,
      "ose": 600,
      "Ġimp": 601,
      "ond": 602,
      "Ġro": 603,
      "Ġpe": 604,
      "Ġag": 605,
      "ark": 606,
      "Ġpre": 607,
      "ild": 608,
      "Ġ201": 609,
      "Ġsc": 610,
      "Ġwork": 611,
      "Ġwhat": 612,
      "ren": 613,
      "ens": 614,
      "av": 615,
      "Ġthan": 616,
      "ough": 617,
      "Ġwould": 618,
      "ish": 619,
      "Ġam": 620,
      "Ġdes": 621,
      "wn": 622,
      "nder": 623,
      "Ġwere": 624,
      "ck": 625,
      "int": 626,
      "Ġhow": 627,
      "Ġacc": 628,
      "ater": 629,
      "Ġjust": 630,
      "Ġknow": 631,
      "Ġhad": 632,
      "lp": 633,
      "Ġco": 634,
      "rough": 635,
      "ov": 636,
      "Ġcomm": 637,
      "ound": 638,
      "Ġbec": 639,
      "oy": 640,
      "ne": 641,
      "Ġprov": 642,
      "use": 643,
      "Ġinto": 644,
      "own": 645,
      "ak": 646,
      "ob": 647,
      "vers": 648,
      "ĠHe": 649,
      "Ġhelp": 650,
      "lud": 651,
      "ople": 652,
      "irst": 653,
      "ĠYou": 654,
      "Ġmake": 655,
      "Ġserv": 656,
      "Ġbu": 657,
      "Ġits": 658,
      "ang": 659,
      "lic": 660,
      "Ġmay": 661,
      "Ġuse": 662,
      "old": 663,
      "ning": 664,
      "fter": 665,
      "ory": 666,
      "Ġadd": 667,
      "Ġher": 668,
      "ces": 669,
      "ram": 670,
      "rent": 671,
      "Ġpr": 672,
      "ual": 673,
      "ĠIf": 674,
      "cial": 675,
      "Ġind": 676,
      "Ġprodu": 677,
      "ments": 678,
      ").": 679,
      "Ġpeople": 680,
      "Ġmost": 681,
      "itt": 682,
      "Ġno": 683,
      "Ġem": 684,
      "Ġfl": 685,
      "ft": 686,
      "ices": 687,
      "ĠWh": 688,
      "Ġwell": 689,
      "we": 690,
      "tern": 691,
      "Ġonly": 692,
      "ious": 693,
      "Ġthrough": 694,
      "Ġtr": 695,
      "Ġ-": 696,
      "Ġinclud": 697,
      "ons": 698,
      "Ġbl": 699,
      "ily": 700,
      "ject": 701,
      "hed": 702,
      "ates": 703,
      "Ġtw": 704,
      "les": 705,
      "Ġevery": 706,
      "ian": 707,
      "Ġfirst": 708,
      "Ġcons": 709,
      "Ġbet": 710,
      "ull": 711,
      "end": 712,
      "Ġph": 713,
      "Ġact": 714,
      "ause": 715,
      "Ġ4": 716,
      "round": 717,
      "ating": 718,
      "ise": 719,
      "lect": 720,
      "ĠâĢĵ": 721,
      "Ġunder": 722,
      "Ġdif": 723,
      "ities": 724,
      "ink": 725,
      "Ġthese": 726,
      "Ġwant": 727,
      "Ġsupp": 728,
      "ific": 729,
      "Ġ5": 730,
      "ĠAs": 731,
      "Ġexper": 732,
      "Ġvery": 733,
      "Ġsee": 734,
      "oth": 735,
      "Ġrep": 736,
      "cess": 737,
      "Ġpo": 738,
      "ade": 739,
      "mer": 740,
      "Ġcol": 741,
      "hen": 742,
      "Ġsy": 743,
      "iness": 744,
      "ert": 745,
      "Ġra": 746,
      "Ġreg": 747,
      "Ġrel": 748,
      "ict": 749,
      "ange": 750,
      "ful": 751,
      "Ġmany": 752,
      "xt": 753,
      "amp": 754,
      "ced": 755,
      "ĠRe": 756,
      "any": 757,
      "ph": 758,
      "Ġback": 759,
      "Ġinv": 760,
      "fore": 761,
      "Ġstud": 762,
      "uch": 763,
      "ract": 764,
      "Ġ19": 765,
      "ife": 766,
      "Ġbus": 767,
      "iss": 768,
      "sel": 769,
      "Ġdec": 770,
      "Ġgood": 771,
      "als": 772,
      "ible": 773,
      "iew": 774,
      "Ġtwo": 775,
      "Ġke": 776,
      "Ġway": 777,
      "bs": 778,
      "Ġshe": 779,
      "'t": 780,
      "day": 781,
      "row": 782,
      "ures": 783,
      "Ġass": 784,
      "Ġyears": 785,
      "Ġgreat": 786,
      "urn": 787,
      "ower": 788,
      "Ġloc": 789,
      "erson": 790,
      "Ġac": 791,
      "Ġev": 792,
      "Ġafter": 793,
      "Ġshould": 794,
      "Ġcould": 795,
      "Ġpos": 796,
      "Ġwhere": 797,
      "ting": 798,
      "ility": 799,
      "Ġsm": 800,
      "eth": 801,
      "pect": 802,
      "Ġthen": 803,
      "Ġown": 804,
      "Ġeven": 805,
      "ool": 806,
      "ased": 807,
      "Ġrem": 808,
      "li": 809,
      "Ġinform": 810,
      "ational": 811,
      "Ġbest": 812,
      "olog": 813,
      "get": 814,
      "Ġent": 815,
      "erm": 816,
      "Ġinst": 817,
      "Ġcar": 818,
      "ont": 819,
      "ience": 820,
      "stem": 821,
      "Ġins": 822,
      "ular": 823,
      "Ġstart": 824,
      "uring": 825,
      "Ġsuch": 826,
      "ward": 827,
      "rit": 828,
      "oll": 829,
      "Ġright": 830,
      "Ġhigh": 831,
      "Ġset": 832,
      "aw": 833,
      "velop": 834,
      "Ġfind": 835,
      "Ġsec": 836,
      "ĠUn": 837,
      "ew": 838,
      "Ġeff": 839,
      "Ġfin": 840,
      "ath": 841,
      "Ġhome": 842,
      "ative": 843,
      "Ġsaid": 844,
      "Ġrequ": 845,
      "Ġmuch": 846,
      "Ġnow": 847,
      "ĠAn": 848,
      "Ġdiffe": 849,
      "ble": 850,
      "ts": 851,
      "Ġdesign": 852,
      "Ġgu": 853,
      "ĠFor": 854,
      "ics": 855,
      "Ġplay": 856,
      "line": 857,
      "Ġdown": 858,
      "ty": 859,
      "Ġbusiness": 860,
      "its": 861,
      "alth": 862,
      "hes": 863,
      "Ġdon": 864,
      "hip": 865,
      "Ġatt": 866,
      "ys": 867,
      "),": 868,
      "ĠSe": 869,
      "ener": 870,
      "ĠAnd": 871,
      "Ġread": 872,
      "Ġday": 873,
      "Ġtake": 874,
      "ident": 875,
      "Ġbecause": 876,
      "Ġav": 877,
      "ĠCom": 878,
      "Ġinte": 879,
      "air": 880,
      "Ġused": 881,
      "gan": 882,
      "Ġinformation": 883,
      "arch": 884,
      "ient": 885,
      "ited": 886,
      "Ġperson": 887,
      "Ġproduct": 888,
      "Ġmin": 889,
      "Ġlong": 890,
      "Ġtoo": 891,
      "ĠPro": 892,
      "Ġfam": 893,
      "ĠDe": 894,
      "Ġdisc": 895,
      "ied": 896,
      "Ġmod": 897,
      "Ġmon": 898,
      "arket": 899,
      "Ġsur": 900,
      "ock": 901,
      "chn": 902,
      "Ġprog": 903,
      "com": 904,
      "Ġdevelop": 905,
      "Ġ6": 906,
      "Ġsim": 907,
      "ustom": 908,
      "Ġche": 909,
      "Ġsystem": 910,
      "cy": 911,
      "Ġdoes": 912,
      "Ġbel": 913,
      "Ġdid": 914,
      "und": 915,
      "Ġprovid": 916,
      "Ġmade": 917,
      "ality": 918,
      "Ġcre": 919,
      "chool": 920,
      "Ġbefore": 921,
      "other": 922,
      "up": 923,
      "ash": 924,
      "Ġthose": 925,
      "Ġnum": 926,
      "Ġvis": 927,
      "Ġbeing": 928,
      "ually": 929,
      "Ġtrans": 930,
      "rib": 931,
      "ĠThere": 932,
      "ving": 933,
      "ĠAl": 934,
      "Ġshow": 935,
      "Ġpres": 936,
      "Ġbr": 937,
      "ner": 938,
      "Ġlife": 939,
      "Ġmed": 940,
      "Ġend": 941,
      "io": 942,
      "Ġworld": 943,
      "Ġcall": 944,
      "Ġhere": 945,
      "arm": 946,
      "Ġ&": 947,
      "Ġcomple": 948,
      "Ġeach": 949,
      "Ġwee": 950,
      "ata": 951,
      "Ġeas": 952,
      "Ġhand": 953,
      "Ġdet": 954,
      "Ġsupport": 955,
      "rest": 956,
      "Ġ$": 957,
      "ĠBe": 958,
      "ix": 959,
      "Ġcur": 960,
      "Ġdifferent": 961,
      "Ġsub": 962,
      "Ġagain": 963,
      "ues": 964,
      "ric": 965,
      "Ġart": 966,
      "Ġinter": 967,
      "ĠHow": 968,
      "ork": 969,
      "ĠBut": 970,
      "ake": 971,
      "led": 972,
      "ives": 973,
      "Ġlook": 974,
      "Ġadv": 975,
      "ince": 976,
      "ages": 977,
      "Ġexp": 978,
      "Ġcustom": 979,
      "Ġwhile": 980,
      "way": 981,
      "Ġop": 982,
      "Ġprocess": 983,
      "cept": 984,
      "Ġmem": 985,
      "ional": 986,
      "arn": 987,
      "Ġform": 988,
      "ank": 989,
      "kes": 990,
      "ever": 991,
      "ĠSh": 992,
      "ason": 993,
      "Ġcare": 994,
      "Ġstr": 995,
      "ell": 996,
      "Ġaround": 997,
      "land": 998,
      "Ġcommun": 999,
      "ouse": 1000,
      "olut": 1001,
      "Ġaut": 1002,
      "Ġsk": 1003,
      "iet": 1004,
      "az": 1005,
      "ng": 1006,
      "ize": 1007,
      "ines": 1008,
      "ros": 1009,
      "self": 1010,
      "Ġbo": 1011,
      "ple": 1012,
      "irect": 1013,
      "Ġmarket": 1014,
      "ather": 1015,
      "Ġcle": 1016,
      "Ġprogram": 1017,
      "Ġlast": 1018,
      "Ġed": 1019,
      "Ġreally": 1020,
      "Ġchild": 1021,
      "Ġcour": 1022,
      "Ġprof": 1023,
      "der": 1024,
      "read": 1025,
      "Ġlead": 1026,
      "...": 1027,
      "ins": 1028,
      "Ġgra": 1029,
      "ollow": 1030,
      "Ġret": 1031,
      "Ġ10": 1032,
      "Ġpost": 1033,
      "Ġimport": 1034,
      "Ġ200": 1035,
      "Ġser": 1036,
      "Ġteam": 1037,
      "ness": 1038,
      "Ġpur": 1039,
      "Ġavail": 1040,
      "Ġtechn": 1041,
      "ved": 1042,
      "Ġplace": 1043,
      "Ġlove": 1044,
      "imes": 1045,
      "ween": 1046,
      "ale": 1047,
      "Ġproject": 1048,
      "oad": 1049,
      "Ġloo": 1050,
      "ĠOn": 1051,
      "Ġ7": 1052,
      "ave": 1053,
      "ways": 1054,
      "Ġ8": 1055,
      "Ġsign": 1056,
      "Ġboth": 1057,
      "ene": 1058,
      "Ġcount": 1059,
      "ĠThey": 1060,
      "Ġhim": 1061,
      "atch": 1062,
      "Ġfeel": 1063,
      "Ġsom": 1064,
      "Ġfree": 1065,
      "Ġgl": 1066,
      "pr": 1067,
      "Ġcompany": 1068,
      "ĠAr": 1069,
      "Ġfun": 1070,
      "Ġthink": 1071,
      "ature": 1072,
      "Ġsame": 1073,
      "Ġpub": 1074,
      "ivers": 1075,
      "Ġusing": 1076,
      "Ġlar": 1077,
      "roup": 1078,
      "oun": 1079,
      "Ġext": 1080,
      "Ġbetween": 1081,
      "ized": 1082,
      "Ġfull": 1083,
      "Ġlist": 1084,
      "Ġvar": 1085,
      "Ġstill": 1086,
      "uc": 1087,
      "Ġval": 1088,
      "ĠSo": 1089,
      "de": 1090,
      "ining": 1091,
      "lease": 1092,
      "Ġgener": 1093,
      "Ġpol": 1094,
      "Ġhealth": 1095,
      "Ġ.": 1096,
      "ets": 1097,
      "Ġthough": 1098,
      "riend": 1099,
      "Ġchar": 1100,
      "Ġgoing": 1101,
      "ĠNew": 1102,
      "Ġservice": 1103,
      "Ġplan": 1104,
      "Ġtop": 1105,
      "Ġopt": 1106,
      "ĠCl": 1107,
      "gg": 1108,
      "Ġlot": 1109,
      "Ġavailable": 1110,
      "ĠAd": 1111,
      "Ġappro": 1112,
      "Ġfound": 1113,
      "Ġty": 1114,
      "Ġfew": 1115,
      "ology": 1116,
      "Ġdata": 1117,
      "ired": 1118,
      "ten": 1119,
      "Ġide": 1120,
      "Ġmain": 1121,
      "view": 1122,
      "ĠWhen": 1123,
      "Ġfollow": 1124,
      "Ġcor": 1125,
      "Ġbuild": 1126,
      "ittle": 1127,
      "ĠWhat": 1128,
      "Ġkeep": 1129,
      "Ġpoint": 1130,
      "ants": 1131,
      "Ġresult": 1132,
      "Ġposs": 1133,
      "less": 1134,
      "erg": 1135,
      "Ġallow": 1136,
      "Ġexperience": 1137,
      "Ġsl": 1138,
      "Ġhapp": 1139,
      "Ġoffer": 1140,
      "Ġsmall": 1141,
      "iqu": 1142,
      "Ġmonth": 1143,
      "Ġpartic": 1144,
      "Ġrun": 1145,
      "Ġnumber": 1146,
      "ars": 1147,
      "Ġ9": 1148,
      "Ġpay": 1149,
      "Ġorgan": 1150,
      "iving": 1151,
      "ered": 1152,
      "Ġiss": 1153,
      "Ġreal": 1154,
      "Ġref": 1155,
      "Ġwater": 1156,
      "Ġcent": 1157,
      "Ġduring": 1158,
      "Ġcost": 1159,
      "Ġservices": 1160,
      "ĠTo": 1161,
      "Ġalways": 1162,
      "ves": 1163,
      "ĠLe": 1164,
      "Ġprovide": 1165,
      "Ġob": 1166,
      "Ġwithout": 1167,
      "Ġpri": 1168,
      "Ġinf": 1169,
      "Ġsure": 1170,
      "Ġrest": 1171,
      "Ġfamily": 1172,
      "Ġdef": 1173,
      "Ġincluding": 1174,
      "ross": 1175,
      "Ġpat": 1176,
      "stand": 1177,
      "ern": 1178,
      "Ġinterest": 1179,
      "Ġmust": 1180,
      "ically": 1181,
      "Ġimportant": 1182,
      "Ġproper": 1183,
      "Ġthings": 1184,
      "ĠAll": 1185,
      "ruct": 1186,
      "Ġschool": 1187,
      "Ġthree": 1188,
      "000": 1189,
      "Ġopen": 1190,
      "ists": 1191,
      "ah": 1192,
      "ware": 1193,
      "Ġeffect": 1194,
      "ital": 1195,
      "ural": 1196,
      "thing": 1197,
      "ien": 1198,
      "ton": 1199,
      "Ġcome": 1200,
      "orth": 1201,
      "ined": 1202,
      "Ġfact": 1203,
      "ug": 1204,
      "ody": 1205,
      "Ġstand": 1206,
      "Ġconc": 1207,
      "Ġbetter": 1208,
      "Ġlittle": 1209,
      "ĠEx": 1210,
      "Ġdri": 1211,
      "aut": 1212,
      "Ġrece": 1213,
      "arly": 1214,
      "Ġpass": 1215,
      "bers": 1216,
      "Ġresp": 1217,
      "Ġable": 1218,
      "blem": 1219,
      "Ġspec": 1220,
      "ĠQ": 1221,
      "Ġperform": 1222,
      "20": 1223,
      "ĠAt": 1224,
      "Ġconf": 1225,
      "Ġstate": 1226,
      "ĠWith": 1227,
      "ier": 1228,
      "ĠPl": 1229,
      "Ġfil": 1230,
      "Ġsay": 1231,
      "alk": 1232,
      "ĠInd": 1233,
      "Ġdist": 1234,
      "Ġcontin": 1235,
      "ling": 1236,
      "ĠTe": 1237,
      "Ġtry": 1238,
      "ething": 1239,
      "ery": 1240,
      "ared": 1241,
      "vern": 1242,
      "ield": 1243,
      "Ġclass": 1244,
      "ute": 1245,
      "Ġfriend": 1246,
      "Ġincre": 1247,
      "ploy": 1248,
      "ished": 1249,
      "uss": 1250,
      "meric": 1251,
      "Ġlevel": 1252,
      "Ġonline": 1253,
      "ention": 1254,
      "ĠShe": 1255,
      "Ġproblem": 1256,
      "Ġmight": 1257,
      "ccess": 1258,
      "Ġdirect": 1259,
      "Ġquest": 1260,
      "Ġgive": 1261,
      "Ġlight": 1262,
      "Ġsince": 1263,
      "els": 1264,
      "man": 1265,
      "Ġnext": 1266,
      "Ġspecial": 1267,
      "Ġgroup": 1268,
      "ients": 1269,
      "Ġwebs": 1270,
      "co": 1271,
      "rol": 1272,
      "con": 1273,
      "ĠIs": 1274,
      "Ġve": 1275,
      "me": 1276,
      "Ġput": 1277,
      "Ġbra": 1278,
      "ense": 1279,
      "ĠOur": 1280,
      "dition": 1281,
      "Ġcert": 1282,
      "ately": 1283,
      "nect": 1284,
      "oney": 1285,
      "Ġsomething": 1286,
      "Ġopp": 1287,
      "ider": 1288,
      "Ġoper": 1289,
      "Ġwithin": 1290,
      "Ġbook": 1291,
      "Ġtri": 1292,
      "att": 1293,
      "Ġanother": 1294,
      "Ġwr": 1295,
      "Ġinvest": 1296,
      "Ġpower": 1297,
      "Ġbig": 1298,
      "ential": 1299,
      "Ġcurrent": 1300,
      "Ġreport": 1301,
      "ĠSc": 1302,
      "Ġaccess": 1303,
      "ral": 1304,
      "be": 1305,
      "pend": 1306,
      "Ġrese": 1307,
      "Ġmus": 1308,
      "Ġgrow": 1309,
      "ps": 1310,
      "Ġaddition": 1311,
      "Ġarea": 1312,
      "ĠAmeric": 1313,
      "Ġsoc": 1314,
      "rence": 1315,
      "ames": 1316,
      "Ġlet": 1317,
      "Ġorder": 1318,
      "Ġhard": 1319,
      "Ġquality": 1320,
      "reen": 1321,
      "Ġprofess": 1322,
      "au": 1323,
      "eng": 1324,
      "Ġexpl": 1325,
      "Ġeng": 1326,
      "port": 1327,
      "iversity": 1328,
      "ior": 1329,
      "ivid": 1330,
      "here": 1331,
      "Ġsecond": 1332,
      "Ġcr": 1333,
      "Ġless": 1334,
      "rist": 1335,
      "Ġold": 1336,
      "Ġprot": 1337,
      "ortun": 1338,
      "ĠBl": 1339,
      "Ġest": 1340,
      "ium": 1341,
      "oot": 1342,
      "joy": 1343,
      "ards": 1344,
      "Ġi": 1345,
      "ision": 1346,
      "Ġdays": 1347,
      "Ġweek": 1348,
      "Ġproducts": 1349,
      "Ġbuy": 1350,
      "ĠZ": 1351,
      "Ġequ": 1352,
      "Ġpract": 1353,
      "ĠThat": 1354,
      "Ġhead": 1355,
      "Ġroom": 1356,
      "Ġphot": 1357,
      "ours": 1358,
      "Ġmov": 1359,
      "Ġtest": 1360,
      "Ġnever": 1361,
      "Ġworking": 1362,
      "ism": 1363,
      "ration": 1364,
      "ted": 1365,
      "orn": 1366,
      "ases": 1367,
      "Ġel": 1368,
      "Ġstudents": 1369,
      "Ġaff": 1370,
      "Ġsal": 1371,
      "oss": 1372,
      "tain": 1373,
      "Ġintern": 1374,
      "Ġgot": 1375,
      "Ġsit": 1376,
      "ĠCon": 1377,
      "Ġlocal": 1378,
      "Ġapplic": 1379,
      "Ġunt": 1380,
      "ĠPh": 1381,
      "Ġfac": 1382,
      "Ġprom": 1383,
      "ently": 1384,
      "ified": 1385,
      "ateg": 1386,
      "cing": 1387,
      "Ġvisit": 1388,
      "Ġmaking": 1389,
      "Ġgr": 1390,
      "ator": 1391,
      "Ġgame": 1392,
      "Ġmeet": 1393,
      "agement": 1394,
      "Ġindust": 1395,
      "ĠMy": 1396,
      "Ġlooking": 1397,
      "Ġprev": 1398,
      "ote": 1399,
      "Ġsite": 1400,
      "Ġbro": 1401,
      "Ġwin": 1402,
      "Ġtoday": 1403,
      "Ġfood": 1404,
      "ission": 1405,
      "iron": 1406,
      "ills": 1407,
      "Ġlarge": 1408,
      "Ġwebsite": 1409,
      "Ġchange": 1410,
      "ĠâĢĺ": 1411,
      "Ġchildren": 1412,
      "ee": 1413,
      "Ġunderstand": 1414,
      "ump": 1415,
      "oint": 1416,
      "ems": 1417,
      "ieve": 1418,
      "pping": 1419,
      "Ġjob": 1420,
      "inal": 1421,
      "oor": 1422,
      "Ġevent": 1423,
      "load": 1424,
      "fect": 1425,
      "ope": 1426,
      "ify": 1427,
      ".\"": 1428,
      "ĠThese": 1429,
      "por": 1430,
      "Ġcap": 1431,
      "Ġchang": 1432,
      "Ġ0": 1433,
      "Ġpublic": 1434,
      "Ġbre": 1435,
      "ability": 1436,
      "Ġpop": 1437,
      "cl": 1438,
      "Ġneeds": 1439,
      "Ġconst": 1440,
      "Ġsuccess": 1441,
      "Ġimpro": 1442,
      "Ġterm": 1443,
      "Ġcourse": 1444,
      "aterial": 1445,
      "Ġcomplete": 1446,
      "Ġca": 1447,
      "Ġmet": 1448,
      "Ġeasy": 1449,
      "aster": 1450,
      "ĠOr": 1451,
      "ats": 1452,
      "ĠFr": 1453,
      "Ġcreat": 1454,
      "Ġview": 1455,
      "Ġpresent": 1456,
      "cent": 1457,
      "ised": 1458,
      "Ġenjoy": 1459,
      "omm": 1460,
      "Ġmoney": 1461,
      "to": 1462,
      "Ġtru": 1463,
      "room": 1464,
      "itions": 1465,
      "ĠCol": 1466,
      "ĠCan": 1467,
      "ird": 1468,
      "Ġann": 1469,
      "ode": 1470,
      "Ġcase": 1471,
      "ron": 1472,
      "illion": 1473,
      "ample": 1474,
      "!!": 1475,
      "ids": 1476,
      "pos": 1477,
      "Ġactiv": 1478,
      "Ġconnect": 1479,
      ".,": 1480,
      "Ġlaw": 1481,
      "ably": 1482,
      "ax": 1483,
      "lection": 1484,
      "iety": 1485,
      "Ġfr": 1486,
      "ĠSp": 1487,
      "Ġair": 1488,
      "ĠUS": 1489,
      "Ġpast": 1490,
      "Ġemploy": 1491,
      "gin": 1492,
      "ĠRes": 1493,
      "Ġdem": 1494,
      "Ġlearn": 1495,
      "Ġuntil": 1496,
      "Ġpain": 1497,
      "Ġbas": 1498,
      "Ġindivid": 1499,
      "Ġaway": 1500,
      "ization": 1501,
      "Ġalong": 1502,
      "Ġ18": 1503,
      "Ġcontact": 1504,
      "med": 1505,
      "Ġoften": 1506,
      "tend": 1507,
      "Ġpersonal": 1508,
      "atter": 1509,
      "work": 1510,
      "Ġ12": 1511,
      "Ġtoget": 1512,
      "ries": 1513,
      "Ġturn": 1514,
      "Ġtogether": 1515,
      "ret": 1516,
      "oci": 1517,
      "ĠMan": 1518,
      "Ġhouse": 1519,
      "Ġtreat": 1520,
      "Ġname": 1521,
      "Ġpossible": 1522,
      "ĠChrist": 1523,
      "50": 1524,
      "olution": 1525,
      "Ġelect": 1526,
      "enef": 1527,
      "Ġleg": 1528,
      "ger": 1529,
      "Ġhum": 1530,
      "ocus": 1531,
      "pped": 1532,
      "utes": 1533,
      "Ġsing": 1534,
      "Ġ'": 1535,
      "Ġgovern": 1536,
      "ique": 1537,
      "Ġdi": 1538,
      "min": 1539,
      "Ġmaterial": 1540,
      "aring": 1541,
      "ains": 1542,
      "iven": 1543,
      "Ġhist": 1544,
      "Ġagainst": 1545,
      "ER": 1546,
      "ĠNo": 1547,
      "outh": 1548,
      "Ġrecord": 1549,
      "Ġresearch": 1550,
      ",âĢĿ": 1551,
      "Ġwhy": 1552,
      "fer": 1553,
      "ĠComm": 1554,
      "arent": 1555,
      "ising": 1556,
      "Ġdev": 1557,
      "ĠDo": 1558,
      "ury": 1559,
      "Ġindividual": 1560,
      "ott": 1561,
      "ney": 1562,
      "Ġtimes": 1563,
      "Ġask": 1564,
      "ember": 1565,
      "itive": 1566,
      "Ġexpect": 1567,
      "ream": 1568,
      "Ġpot": 1569,
      "Ġcreate": 1570,
      "10": 1571,
      "Ġpa": 1572,
      "Ġhaving": 1573,
      "veral": 1574,
      "part": 1575,
      "ories": 1576,
      "Ġbased": 1577,
      "ogra": 1578,
      "hor": 1579,
      "Ġaccount": 1580,
      "Ġcommunity": 1581,
      "lish": 1582,
      "ush": 1583,
      "Ġrequire": 1584,
      "ination": 1585,
      "Ġkind": 1586,
      "viron": 1587,
      "ived": 1588,
      "Ġmeans": 1589,
      "ex": 1590,
      "Ġprotect": 1591,
      "Ġbenef": 1592,
      "the": 1593,
      "ering": 1594,
      "ĠOne": 1595,
      "Ġdetail": 1596,
      "bo": 1597,
      "Ġbeh": 1598,
      "omen": 1599,
      "Ġworks": 1600,
      "side": 1601,
      "ĠHowever": 1602,
      "atures": 1603,
      "Ġbeaut": 1604,
      "icle": 1605,
      "Ġperfect": 1606,
      "ĠTr": 1607,
      "Ġcontrol": 1608,
      "Ġinclude": 1609,
      "ina": 1610,
      "pecial": 1611,
      "Ġmult": 1612,
      "ann": 1613,
      "Ġpar": 1614,
      "Ġbecome": 1615,
      "Ġside": 1616,
      "ĠJo": 1617,
      "Ġdra": 1618,
      "Ġword": 1619,
      "Ġprice": 1620,
      "ĠCent": 1621,
      "ured": 1622,
      "Ġla": 1623,
      "ĠGod": 1624,
      "Ġtem": 1625,
      "let": 1626,
      "Ġmar": 1627,
      "Ġwrit": 1628,
      "ency": 1629,
      "ĠCo": 1630,
      "aim": 1631,
      "Ġlim": 1632,
      "Ġsw": 1633,
      "Ġsoft": 1634,
      "oice": 1635,
      "Ġdone": 1636,
      "lement": 1637,
      "ready": 1638,
      "ken": 1639,
      "Ġes": 1640,
      "anies": 1641,
      "Ġmakes": 1642,
      "yle": 1643,
      "Ġhot": 1644,
      "Ġfocus": 1645,
      "Ġspecific": 1646,
      "of": 1647,
      "Ġfour": 1648,
      "Ġenough": 1649,
      "Ġcomes": 1650,
      "Ġthing": 1651,
      "Ġvide": 1652,
      "lling": 1653,
      "Ġleft": 1654,
      "iting": 1655,
      "ĠUniversity": 1656,
      "rop": 1657,
      "Ġdevelopment": 1658,
      "jor": 1659,
      "Ġens": 1660,
      "urity": 1661,
      "ows": 1662,
      "ik": 1663,
      "ĠFl": 1664,
      "Ġquick": 1665,
      "Ġcheck": 1666,
      "ĠAfter": 1667,
      "Ġopportun": 1668,
      "ley": 1669,
      "Ġeduc": 1670,
      "aking": 1671,
      "Ġnight": 1672,
      "Ġtyp": 1673,
      "Ġmembers": 1674,
      "ding": 1675,
      "Ġtre": 1676,
      "Ġcou": 1677,
      "Ġseveral": 1678,
      "Ġshort": 1679,
      "Ġalready": 1680,
      "Ġmove": 1681,
      "ĠâĢĶ": 1682,
      "ript": 1683,
      "Ġlow": 1684,
      "Ġocc": 1685,
      "Ġline": 1686,
      "ged": 1687,
      "Ġbody": 1688,
      "Ġ15": 1689,
      "Ġsol": 1690,
      "Ġnon": 1691,
      "aff": 1692,
      "uture": 1693,
      "Ġcover": 1694,
      "vironment": 1695,
      "ĠAm": 1696,
      "Ġothers": 1697,
      "conom": 1698,
      "Ġhig": 1699,
      "Ġconsider": 1700,
      "Ġredu": 1701,
      "Ġcertain": 1702,
      "Ġtool": 1703,
      "Ġgetting": 1704,
      "ĠEng": 1705,
      "Ġreview": 1706,
      "ane": 1707,
      "'re": 1708,
      "Ġnet": 1709,
      "Ġcountry": 1710,
      "br": 1711,
      "Ġacross": 1712,
      "Ġlive": 1713,
      "uro": 1714,
      "Ġet": 1715,
      "Ġpurch": 1716,
      "Ġspace": 1717,
      "Ġever": 1718,
      "Ġcompanies": 1719,
      "The": 1720,
      "Ġsocial": 1721,
      "alf": 1722,
      "ĠMar": 1723,
      "Ġclean": 1724,
      "inc": 1725,
      "ands": 1726,
      "irm": 1727,
      "urs": 1728,
      "ither": 1729,
      "Ġshare": 1730,
      "fact": 1731,
      "Ġhold": 1732,
      "ored": 1733,
      "ĠSu": 1734,
      "Ġfore": 1735,
      "anks": 1736,
      "Ġ30": 1737,
      "Ġmean": 1738,
      "Ġmajor": 1739,
      "ĠApp": 1740,
      "Ġanal": 1741,
      "Ġfar": 1742,
      "Ġste": 1743,
      "ethod": 1744,
      "urance": 1745,
      "Ġbit": 1746,
      "Ġmusic": 1747,
      "Ġkey": 1748,
      "Ġfund": 1749,
      "urther": 1750,
      "Ġcompet": 1751,
      "Ġce": 1752,
      "Ġboo": 1753,
      "ots": 1754,
      "Ġdeal": 1755,
      "ances": 1756,
      "wards": 1757,
      "Ġmind": 1758,
      "Ġpage": 1759,
      "ully": 1760,
      "Ġdoing": 1761,
      "Ġparticular": 1762,
      "Ġindustry": 1763,
      "Ġident": 1764,
      "Ġorig": 1765,
      "Ġfuture": 1766,
      "ides": 1767,
      "Ġexample": 1768,
      "Ġfav": 1769,
      "Ġleast": 1770,
      "ĠMay": 1771,
      "par": 1772,
      "Ġris": 1773,
      "Ġseason": 1774,
      "ai": 1775,
      "ones": 1776,
      "by": 1777,
      "Ġrange": 1778,
      "ording": 1779,
      "ribut": 1780,
      "Ġ11": 1781,
      "Ġactually": 1782,
      "Ġpriv": 1783,
      "Ġoffers": 1784,
      "ograph": 1785,
      "ĠEn": 1786,
      "Ġchoo": 1787,
      "Ġinstall": 1788,
      "Ġvers": 1789,
      "err": 1790,
      "Ġess": 1791,
      "IN": 1792,
      "Ġcamp": 1793,
      "Ġstep": 1794,
      "most": 1795,
      "ners": 1796,
      "Ġstarted": 1797,
      "ches": 1798,
      "Ġdeli": 1799,
      "Ġwind": 1800,
      "Ġonce": 1801,
      "ĠCar": 1802,
      "over": 1803,
      "Ġinvol": 1804,
      "Ġreason": 1805,
      "orts": 1806,
      "osed": 1807,
      "Ġstory": 1808,
      "ĠInst": 1809,
      "Ġproperty": 1810,
      "lf": 1811,
      "ĠIntern": 1812,
      "Ġenerg": 1813,
      "Ġsum": 1814,
      "Ġvalue": 1815,
      "Ġcity": 1816,
      "Ġhours": 1817,
      "ference": 1818,
      "âĢĶ": 1819,
      "ift": 1820,
      "ĠYour": 1821,
      "Ġreturn": 1822,
      "ilities": 1823,
      "Ġchall": 1824,
      "not": 1825,
      "Ġgovernment": 1826,
      "ources": 1827,
      "Ġstudy": 1828,
      "Ġcomb": 1829,
      "uck": 1830,
      "oring": 1831,
      "ES": 1832,
      "atic": 1833,
      "ĠTra": 1834,
      "ĠPr": 1835,
      "ec": 1836,
      "Ġbring": 1837,
      "ĠSy": 1838,
      "Ġdidn": 1839,
      "Ġcustomers": 1840,
      "ĠCont": 1841,
      "Ġamount": 1842,
      "Ġbelow": 1843,
      "Ġexc": 1844,
      "aces": 1845,
      "resent": 1846,
      "Ġbuilding": 1847,
      "for": 1848,
      "Ġtechnology": 1849,
      "Ġcalled": 1850,
      "Ġstrong": 1851,
      "Ġenvironment": 1852,
      "ource": 1853,
      "Ġbrand": 1854,
      "'m": 1855,
      "arning": 1856,
      "icy": 1857,
      "Ġrespons": 1858,
      "Ġrecomm": 1859,
      "Ġprofessional": 1860,
      "19": 1861,
      "cle": 1862,
      "Ġrecommend": 1863,
      "ster": 1864,
      "duct": 1865,
      "Ġmethod": 1866,
      "Ġsuper": 1867,
      "ino": 1868,
      "iod": 1869,
      "Ġfield": 1870,
      "ilt": 1871,
      "30": 1872,
      "Ġclose": 1873,
      "ĠComp": 1874,
      "Ġtax": 1875,
      "Ġey": 1876,
      "Ġmil": 1877,
      "Ġwa": 1878,
      "atural": 1879,
      "Ġenergy": 1880,
      "'ve": 1881,
      "enn": 1882,
      "Ġemail": 1883,
      "fort": 1884,
      "cell": 1885,
      "Ġminutes": 1886,
      "iful": 1887,
      "lished": 1888,
      "Ġfeatures": 1889,
      "Ġoffic": 1890,
      ",\"": 1891,
      "Ġbar": 1892,
      "ips": 1893,
      "Ġdr": 1894,
      "Ġthought": 1895,
      "Ġgiven": 1896,
      "Ġfriends": 1897,
      "Ġtraining": 1898,
      "ffic": 1899,
      "Ġresults": 1900,
      "Ġmonths": 1901,
      "ON": 1902,
      "Ġrepl": 1903,
      "Ġbegin": 1904,
      "Ġmom": 1905,
      "Ġz": 1906,
      "ĠChe": 1907,
      "Ġpercent": 1908,
      "ched": 1909,
      "Ġmanagement": 1910,
      "Ġdiscuss": 1911,
      "Ġdoesn": 1912,
      "Ġvol": 1913,
      "ancial": 1914,
      "Ġcharact": 1915,
      "Ġyoung": 1916,
      "ĠGu": 1917,
      "ledge": 1918,
      "ians": 1919,
      "ĠÂ": 1920,
      "Ġabove": 1921,
      "Ġstay": 1922,
      "Ġheart": 1923,
      "ĠWor": 1924,
      "Ġknown": 1925,
      "Ġpack": 1926,
      "ĠServ": 1927,
      "Ġmen": 1928,
      "ued": 1929,
      "pecially": 1930,
      "light": 1931,
      "Ġaddress": 1932,
      "Ġ2018": 1933,
      "ply": 1934,
      "Ġeverything": 1935,
      "Ġcut": 1936,
      "idd": 1937,
      "Ġtot": 1938,
      "ĠDes": 1939,
      "Ġjo": 1940,
      "Ġrele": 1941,
      "osp": 1942,
      "'ll": 1943,
      "ensive": 1944,
      "cer": 1945,
      "Ġquestions": 1946,
      "Ġport": 1947,
      "Ġsingle": 1948,
      "Ġsays": 1949,
      "Ġsound": 1950,
      "Ġbed": 1951,
      "Ġ199": 1952,
      "Ġpress": 1953,
      "sh": 1954,
      "rap": 1955,
      "crib": 1956,
      "ĠNe": 1957,
      "Ġstore": 1958,
      "Ġcult": 1959,
      "ape": 1960,
      "Ġwon": 1961,
      "Ġsearch": 1962,
      "ulation": 1963,
      "fully": 1964,
      "Ġcal": 1965,
      "Ġearly": 1966,
      "Ġclaim": 1967,
      "Ġcontent": 1968,
      "ĠX": 1969,
      "Ġwhether": 1970,
      "ĠAss": 1971,
      "ister": 1972,
      "ĠEuro": 1973,
      "Ġmillion": 1974,
      "Ġcame": 1975,
      "Ġprovides": 1976,
      "ĠMed": 1977,
      "Ġblog": 1978,
      "Ġdiff": 1979,
      "Ġfollowing": 1980,
      "Ġweb": 1981,
      "Ġant": 1982,
      "ĠSte": 1983,
      "Ġvideo": 1984,
      "Ġenc": 1985,
      "ead": 1986,
      "sw": 1987,
      "Ġpict": 1988,
      "Ġpie": 1989,
      "Ġissues": 1990,
      "app": 1991,
      "Ġimprove": 1992,
      "Ġcred": 1993,
      "Ġmess": 1994,
      "Ġwhole": 1995,
      "Ġhappen": 1996,
      "Ġmot": 1997,
      "Ġtravel": 1998,
      "Ġvarious": 1999,
      "Ġwond": 2000,
      "ume": 2001,
      "ication": 2002,
      "idence": 2003,
      "Ġplease": 2004,
      "Ġcra": 2005,
      "Ġareas": 2006,
      "AT": 2007,
      "ental": 2008,
      "unch": 2009,
      "AN": 2010,
      "acy": 2011,
      "Ġtype": 2012,
      "une": 2013,
      "asing": 2014,
      "Ġauthor": 2015,
      "Ġtook": 2016,
      "Ġsimple": 2017,
      "ruction": 2018,
      "hers": 2019,
      "Ġdue": 2020,
      "imate": 2021,
      "mber": 2022,
      "Ġperiod": 2023,
      "ocu": 2024,
      "ĠAmerican": 2025,
      "Ġyet": 2026,
      "Ġrequired": 2027,
      "Ġhope": 2028,
      "Ġperformance": 2029,
      "ĠNot": 2030,
      "Ġexperien": 2031,
      "Ġeconom": 2032,
      "Ġ100": 2033,
      "Ġmedia": 2034,
      "Ġcommon": 2035,
      "hing": 2036,
      "ĠFe": 2037,
      "yl": 2038,
      "ges": 2039,
      "Ġdam": 2040,
      "illed": 2041,
      "ĠNow": 2042,
      "Ġtell": 2043,
      "Ġrelations": 2044,
      "ring": 2045,
      "rict": 2046,
      "abor": 2047,
      "ained": 2048,
      "lege": 2049,
      "Ġwomen": 2050,
      "ĠMe": 2051,
      "Ġmeas": 2052,
      "Ġamong": 2053,
      "wh": 2054,
      "though": 2055,
      "Ġcond": 2056,
      "Ġappear": 2057,
      "ĠWhile": 2058,
      "Ġselect": 2059,
      "cript": 2060,
      "Ġcustomer": 2061,
      "Ġidea": 2062,
      "ĠSome": 2063,
      "Ġmanag": 2064,
      "ibility": 2065,
      "ogn": 2066,
      "ĠUnited": 2067,
      "Ġ,": 2068,
      "Ġexam": 2069,
      "Ġmach": 2070,
      "icult": 2071,
      "Ġsomeone": 2072,
      "Ġfurther": 2073,
      "Ġfre": 2074,
      "Ġassist": 2075,
      "pro": 2076,
      "aps": 2077,
      "AS": 2078,
      "uff": 2079,
      "Ġtaking": 2080,
      "Ġhuman": 2081,
      "Ġupd": 2082,
      "Ġaud": 2083,
      "iday": 2084,
      "AR": 2085,
      "mb": 2086,
      "Ġphys": 2087,
      "Ġeither": 2088,
      "Ġnecess": 2089,
      "Ġensure": 2090,
      "Ġnews": 2091,
      "Ġdownload": 2092,
      "omes": 2093,
      "Ġtal": 2094,
      "Ġprob": 2095,
      "Ġparticip": 2096,
      "ony": 2097,
      "Ġlater": 2098,
      "gr": 2099,
      "Ġoffice": 2100,
      "ufact": 2101,
      "Ġentire": 2102,
      "Ġage": 2103,
      "Ġstaff": 2104,
      "itted": 2105,
      "vert": 2106,
      "Ġsize": 2107,
      "Ġliving": 2108,
      "ĠEurope": 2109,
      "Ġneeded": 2110,
      "hn": 2111,
      "Ġsignific": 2112,
      "Ġeffective": 2113,
      "ification": 2114,
      "Ġoptions": 2115,
      "Ġespecially": 2116,
      "Ġcard": 2117,
      "Ġstrateg": 2118,
      "Ġoil": 2119,
      "ĠIm": 2120,
      "Ġseen": 2121,
      "12": 2122,
      "ggest": 2123,
      "Ġquite": 2124,
      "ask": 2125,
      "eral": 2126,
      "irc": 2127,
      "Ġtext": 2128,
      "Ġparent": 2129,
      "Ġ16": 2130,
      "ĠBo": 2131,
      "Ġcomput": 2132,
      "Ġdesigned": 2133,
      "Ġface": 2134,
      "Ġprep": 2135,
      "Ġchoose": 2136,
      "nov": 2137,
      "Ġinsurance": 2138,
      "selves": 2139,
      "augh": 2140,
      "go": 2141,
      "Ġach": 2142,
      "Ġbelieve": 2143,
      "Ġtable": 2144,
      "Ġhost": 2145,
      "Ġnear": 2146,
      "Ġwent": 2147,
      "ĠSec": 2148,
      "Ġunique": 2149,
      "ided": 2150,
      "ww": 2151,
      "Ġ2017": 2152,
      "Ġsystems": 2153,
      "ables": 2154,
      "iously": 2155,
      "Ġdig": 2156,
      "Ġprovided": 2157,
      "Ġincludes": 2158,
      "Ġhistory": 2159,
      "gra": 2160,
      "reet": 2161,
      "Ġlikely": 2162,
      "che": 2163,
      "tt": 2164,
      "roll": 2165,
      "ites": 2166,
      "Ġpotential": 2167,
      "Ġfront": 2168,
      "play": 2169,
      "Ġseries": 2170,
      "Ġbeautiful": 2171,
      "irt": 2172,
      "ators": 2173,
      "Ġsuggest": 2174,
      "Ġ[": 2175,
      "lex": 2176,
      "Ġfinancial": 2177,
      "ĠBy": 2178,
      "Ġtour": 2179,
      "Ġrepresent": 2180,
      "Ġhy": 2181,
      "ief": 2182,
      "Ġ14": 2183,
      "ilar": 2184,
      "urch": 2185,
      "nam": 2186,
      "book": 2187,
      "ctor": 2188,
      "ili": 2189,
      "Ġeveryone": 2190,
      "Ġfunction": 2191,
      "Ġinit": 2192,
      "Ġexist": 2193,
      "Ġdifficult": 2194,
      "come": 2195,
      "gest": 2196,
      "Ġhalf": 2197,
      "Ġcollect": 2198,
      "rew": 2199,
      "oved": 2200,
      "Ġetc": 2201,
      "ĠJust": 2202,
      "Ġcontract": 2203,
      "Ġnatural": 2204,
      "aur": 2205,
      "Ġspend": 2206,
      "Ġself": 2207,
      "obal": 2208,
      "Ġsoftware": 2209,
      "Ġdocu": 2210,
      "resh": 2211,
      "Ġsimply": 2212,
      "Ġfilm": 2213,
      "Ġalmost": 2214,
      "ler": 2215,
      "oon": 2216,
      "Ġyourself": 2217,
      "itch": 2218,
      "Ġengine": 2219,
      "ĠMin": 2220,
      "ĠPlease": 2221,
      "Ġdeterm": 2222,
      "ĠDis": 2223,
      "aching": 2224,
      "Ġknowledge": 2225,
      "ĠCal": 2226,
      "Ġclear": 2227,
      "Ġmag": 2228,
      "Ġlog": 2229,
      "Ġphone": 2230,
      "Ġaccept": 2231,
      "Ġquestion": 2232,
      "Ġpan": 2233,
      "ĠGl": 2234,
      "ung": 2235,
      "Ġposition": 2236,
      "inking": 2237,
      "azing": 2238,
      "Ġproblems": 2239,
      "ls": 2240,
      "Ġbreak": 2241,
      "Ġland": 2242,
      "Ġdou": 2243,
      "Ġsecurity": 2244,
      "uation": 2245,
      "ĠDr": 2246,
      "Ġfive": 2247,
      "rodu": 2248,
      "Ġcrit": 2249,
      "Ġmiss": 2250,
      "ĠSchool": 2251,
      "Ġcomfort": 2252,
      "Ġhowever": 2253,
      "Ġ/": 2254,
      "Ġwide": 2255,
      "ĠPe": 2256,
      "xim": 2257,
      "Ġanything": 2258,
      "ĠKe": 2259,
      "Ġagree": 2260,
      "ĠGo": 2261,
      "Ġ24": 2262,
      "ĠCity": 2263,
      "ĠRep": 2264,
      ".âĢĿ": 2265,
      "oid": 2266,
      "Ġfall": 2267,
      "Ġ13": 2268,
      "Ġsignificant": 2269,
      "Ġpick": 2270,
      "Ġrisk": 2271,
      "Ġways": 2272,
      "Ġideas": 2273,
      "Ġrelationship": 2274,
      "ober": 2275,
      "ĠAust": 2276,
      "Ġabs": 2277,
      "Ġwriting": 2278,
      "ball": 2279,
      "Ġ17": 2280,
      "Ġprint": 2281,
      "Ġthird": 2282,
      "obile": 2283,
      "ety": 2284,
      "Ġseem": 2285,
      "Ġassoci": 2286,
      "Ġrequest": 2287,
      "Ġapplication": 2288,
      "Ġcell": 2289,
      "Ġfail": 2290,
      "Ġprojects": 2291,
      "Ġlearning": 2292,
      "Ġevents": 2293,
      "Ġclients": 2294,
      "Ġele": 2295,
      "ops": 2296,
      "Ġregard": 2297,
      "Ġcolor": 2298,
      "Ġwar": 2299,
      "Ġ25": 2300,
      "af": 2301,
      "Ġpopular": 2302,
      "Ġchanges": 2303,
      "rown": 2304,
      "Ġforward": 2305,
      "etimes": 2306,
      "OR": 2307,
      "ees": 2308,
      "Ġmor": 2309,
      "face": 2310,
      "astic": 2311,
      "Ġcoll": 2312,
      "Ġsoon": 2313,
      "Ġusually": 2314,
      "Ġreceive": 2315,
      "ires": 2316,
      "Ġsafe": 2317,
      "Ġ50": 2318,
      "Ġextra": 2319,
      "rect": 2320,
      "Ġmodel": 2321,
      "Ġsubject": 2322,
      "ok": 2323,
      "icro": 2324,
      "ises": 2325,
      "Ġansw": 2326,
      "Ġfavor": 2327,
      "Ġtreatment": 2328,
      "uge": 2329,
      "Ġred": 2330,
      "11": 2331,
      "ĠPer": 2332,
      "Ġmanufact": 2333,
      "ĠHis": 2334,
      "Ġdeb": 2335,
      "acks": 2336,
      "Ġgames": 2337,
      "aining": 2338,
      "reme": 2339,
      "Ġfire": 2340,
      "Ġcreated": 2341,
      "elt": 2342,
      "ĠStud": 2343,
      "Ġissue": 2344,
      "Ġtaken": 2345,
      "iple": 2346,
      "ipment": 2347,
      "Ġadded": 2348,
      "Ġstyle": 2349,
      "ĠAg": 2350,
      "Ġrather": 2351,
      "Ġincrease": 2352,
      "Ġroad": 2353,
      "Ġuser": 2354,
      "Ġ2016": 2355,
      "angu": 2356,
      "Ġhigher": 2357,
      "ĠCount": 2358,
      "ĠState": 2359,
      "ĠNational": 2360,
      "Ġago": 2361,
      "overed": 2362,
      "new": 2363,
      "Ġwatch": 2364,
      "Ġimpact": 2365,
      "val": 2366,
      "anced": 2367,
      "ĠQu": 2368,
      "Ġdepend": 2369,
      "time": 2370,
      "Ġstra": 2371,
      "ĠJohn": 2372,
      "itc": 2373,
      "ights": 2374,
      "ibr": 2375,
      "Ġready": 2376,
      "Ġautom": 2377,
      "Ġeducation": 2378,
      "Ġlo": 2379,
      "arget": 2380,
      "Ġfoot": 2381,
      "Ġthroughout": 2382,
      "Ġdetails": 2383,
      "Ġveh": 2384,
      "ĠHere": 2385,
      "Ġestab": 2386,
      "Ġfit": 2387,
      "icated": 2388,
      "ĠSouth": 2389,
      "Ġadditional": 2390,
      "atur": 2391,
      "Ġtakes": 2392,
      "Ġconsum": 2393,
      "ĠGe": 2394,
      "ĠJan": 2395,
      "Ġstruct": 2396,
      "ze": 2397,
      "Ġfast": 2398,
      "Ġda": 2399,
      "olutions": 2400,
      "Ġelse": 2401,
      "Ġfeature": 2402,
      "iver": 2403,
      "Ġstat": 2404,
      "ED": 2405,
      "Ġwall": 2406,
      "ĠPart": 2407,
      "Ġopportunity": 2408,
      "Ġut": 2409,
      "Ġjour": 2410,
      "mit": 2411,
      "ĠPre": 2412,
      "empt": 2413,
      "Ġtrying": 2414,
      "ille": 2415,
      "Ġmatter": 2416,
      "Ġoutside": 2417,
      "Ġwanted": 2418,
      "where": 2419,
      "Ġwhite": 2420,
      "Ġpaper": 2421,
      "Ġsales": 2422,
      "ĠDon": 2423,
      "Ġusers": 2424,
      "Ġdel": 2425,
      "Ġpractice": 2426,
      "verage": 2427,
      "ĠNorth": 2428,
      "used": 2429,
      "ĠGra": 2430,
      "Ġtradition": 2431,
      "Ġskin": 2432,
      "Ġpoints": 2433,
      "ux": 2434,
      "Ġparty": 2435,
      "ĠBr": 2436,
      "medi": 2437,
      "Ġaction": 2438,
      "Ġcannot": 2439,
      "Ġwalk": 2440,
      "ĠSm": 2441,
      "80": 2442,
      "ĠMr": 2443,
      "Ġkids": 2444,
      "Ġsho": 2445,
      "Ġcoming": 2446,
      "Ġskills": 2447,
      "Ġlat": 2448,
      "Ġrespect": 2449,
      "ĠAb": 2450,
      "ging": 2451,
      "oura": 2452,
      "âĢĵ": 2453,
      "Ġloss": 2454,
      "Ġdefin": 2455,
      "Ġwonder": 2456,
      "Ġbox": 2457,
      "pper": 2458,
      "rie": 2459,
      "Ġprobably": 2460,
      "Ġcontinue": 2461,
      "umb": 2462,
      "opy": 2463,
      "ules": 2464,
      "Ġregular": 2465,
      "Ġsimilar": 2466,
      "ĠWill": 2467,
      "Ġfinal": 2468,
      "Ġdate": 2469,
      "Ġvariety": 2470,
      "Ġinfl": 2471,
      "ried": 2472,
      "15": 2473,
      "Ġisn": 2474,
      "Ġtalk": 2475,
      "EN": 2476,
      "Ġrole": 2477,
      "Ġbad": 2478,
      "Ġlay": 2479,
      "Ġrecogn": 2480,
      "IS": 2481,
      "Ġcurrently": 2482,
      "ĠÐ": 2483,
      "Ġprivate": 2484,
      "ĠFrom": 2485,
      "Ġwords": 2486,
      "ival": 2487,
      "Ġpret": 2488,
      "Ġactivities": 2489,
      "ox": 2490,
      "Ġblack": 2491,
      "Ġaffect": 2492,
      "minist": 2493,
      "Ġreceived": 2494,
      "Ġsent": 2495,
      "gle": 2496,
      "Ġstandard": 2497,
      "Ġtold": 2498,
      "ha": 2499,
      "Ġrate": 2500,
      "ĠAcc": 2501,
      "ĠTH": 2502,
      "Ġcirc": 2503,
      "Ġconcern": 2504,
      "aving": 2505,
      "itting": 2506,
      "Ġgeneral": 2507,
      "Ġsle": 2508,
      "itor": 2509,
      "Ġinside": 2510,
      "Ġchoice": 2511,
      "Ġanim": 2512,
      "Ġsend": 2513,
      "Ġprior": 2514,
      "Ġtou": 2515,
      "apt": 2516,
      "ĠBu": 2517,
      "Ġeasily": 2518,
      "Ġlonger": 2519,
      "Ġmaintain": 2520,
      "ĠTw": 2521,
      "itten": 2522,
      "Ġhappy": 2523,
      "head": 2524,
      "rug": 2525,
      "Ġconditions": 2526,
      "son": 2527,
      "Ġtrue": 2528,
      "Ġweight": 2529,
      "vent": 2530,
      "ĠPar": 2531,
      "Ġoriginal": 2532,
      "ĠUs": 2533,
      "Ġstop": 2534,
      "Ġexcell": 2535,
      "Ġreading": 2536,
      "itut": 2537,
      "Ġattend": 2538,
      "ison": 2539,
      "ese": 2540,
      "Ġeffic": 2541,
      "Ġbott": 2542,
      "Ġlink": 2543,
      "ĠYork": 2544,
      "Ġmaterials": 2545,
      "??": 2546,
      "Ġworth": 2547,
      "Ġexact": 2548,
      "aced": 2549,
      "Ġnorm": 2550,
      "atform": 2551,
      "ceed": 2552,
      "Ġproduction": 2553,
      "Ġcosts": 2554,
      "Ġquickly": 2555,
      "Ġpretty": 2556,
      "ĠWorld": 2557,
      "hy": 2558,
      "ĠSoc": 2559,
      "Ġinsp": 2560,
      "Ġimage": 2561,
      "Ġmember": 2562,
      "Ġheld": 2563,
      "ĠThanks": 2564,
      "ĠApr": 2565,
      "Ġpolicy": 2566,
      "Ġapproach": 2567,
      "Ġrunning": 2568,
      "Ġfile": 2569,
      "put": 2570,
      "Ġitems": 2571,
      "Ġbuilt": 2572,
      "Ġmarketing": 2573,
      "ĠInc": 2574,
      "ĠReg": 2575,
      "Ġmedical": 2576,
      "ole": 2577,
      "ĠEm": 2578,
      "Ġinde": 2579,
      "Ġtotal": 2580,
      "Ġapply": 2581,
      "ĠFin": 2582,
      "ression": 2583,
      "ĠMc": 2584,
      "Ġcharacter": 2585,
      "hib": 2586,
      "Ġaccording": 2587,
      "Ġannoun": 2588,
      "IT": 2589,
      "pri": 2590,
      "Ġamazing": 2591,
      "itchen": 2592,
      "Ġsaf": 2593,
      "Ġnice": 2594,
      "Ġcool": 2595,
      "Ġill": 2596,
      "Ġbooks": 2597,
      "IC": 2598,
      "Ġdeg": 2599,
      "Ġfirm": 2600,
      "ĠBar": 2601,
      "Ġobject": 2602,
      "oud": 2603,
      "Ġcoun": 2604,
      "Ġhon": 2605,
      "Ġofficial": 2606,
      "eter": 2607,
      "Ġdog": 2608,
      "izing": 2609,
      "Ġweeks": 2610,
      "Ġpolit": 2611,
      "Ġsave": 2612,
      "Ġupon": 2613,
      "Ġgrowth": 2614,
      "Ġversion": 2615,
      "Ġvia": 2616,
      "ĠStates": 2617,
      "Ġsix": 2618,
      "Ġrecent": 2619,
      "ci": 2620,
      "Ġteac": 2621,
      "Ġlower": 2622,
      "Ġterms": 2623,
      "18": 2624,
      "back": 2625,
      "Ġground": 2626,
      "Ġgen": 2627,
      "AL": 2628,
      "Ġrelated": 2629,
      "ĠBra": 2630,
      "Ġdrive": 2631,
      "Ġleave": 2632,
      "aging": 2633,
      "Ã©": 2634,
      "Ġlocated": 2635,
      "atory": 2636,
      "ĠJu": 2637,
      "Ġsolution": 2638,
      "Ġsummer": 2639,
      "Ġfig": 2640,
      "Ġspeed": 2641,
      "era": 2642,
      "Ġsun": 2643,
      "ĠThen": 2644,
      "Ġinternational": 2645,
      "Ġneg": 2646,
      "Ġcause": 2647,
      "Ġnecessary": 2648,
      "--": 2649,
      "ground": 2650,
      "Ġshows": 2651,
      "Ġcredit": 2652,
      "Ġallows": 2653,
      "ĠAf": 2654,
      "Ġbal": 2655,
      "Ġsens": 2656,
      "Ġmodern": 2657,
      "ecut": 2658,
      "oman": 2659,
      "inks": 2660,
      "Ġdom": 2661,
      "ĠAct": 2662,
      "Ġchalleng": 2663,
      "Ġrad": 2664,
      "Ġtarget": 2665,
      "iring": 2666,
      "Ġswe": 2667,
      "Ġhol": 2668,
      "based": 2669,
      "Ġ2019": 2670,
      "60": 2671,
      "ĠUK": 2672,
      "erc": 2673,
      "Ġmix": 2674,
      "Ġanyone": 2675,
      "Ġ2015": 2676,
      "Ġbehind": 2677,
      "Ġproviding": 2678,
      "Ġcode": 2679,
      "Ġfa": 2680,
      "Ġx": 2681,
      "idge": 2682,
      "Ġlives": 2683,
      "Ġrecently": 2684,
      "Ġworked": 2685,
      "Ġincluded": 2686,
      "Ġwood": 2687,
      "adem": 2688,
      "ening": 2689,
      "airs": 2690,
      "Ġarticle": 2691,
      "Ġequipment": 2692,
      "ĠPres": 2693,
      "Ġcy": 2694,
      "icles": 2695,
      "Ġprograms": 2696,
      "Ġpatients": 2697,
      "Ġcouple": 2698,
      "Ġability": 2699,
      "Ġlatest": 2700,
      "Ġtools": 2701,
      "ĠCanad": 2702,
      "ĠHigh": 2703,
      "reg": 2704,
      "Ġcondition": 2705,
      "AC": 2706,
      "ysis": 2707,
      "pose": 2708,
      "Ġoption": 2709,
      "Ġbase": 2710,
      "Ġtypes": 2711,
      "ĠPol": 2712,
      "ĠOct": 2713,
      "ĠAustral": 2714,
      "ublic": 2715,
      "Ġpurchase": 2716,
      "ĠMost": 2717,
      "earch": 2718,
      "Ġsell": 2719,
      "iol": 2720,
      "irit": 2721,
      "....": 2722,
      "hold": 2723,
      "Ġnetwork": 2724,
      "iter": 2725,
      "Ġasked": 2726,
      "Ġtown": 2727,
      "Ġones": 2728,
      "Ġseems": 2729,
      "Ġleaders": 2730,
      "Ġnothing": 2731,
      "ively": 2732,
      "Ġgoal": 2733,
      "Ġfloor": 2734,
      "ĠCor": 2735,
      "Ġboard": 2736,
      "ipe": 2737,
      "Ġflow": 2738,
      "ĠArt": 2739,
      "Ġstri": 2740,
      "ĠDep": 2741,
      "Ġinj": 2742,
      "Ġplans": 2743,
      "nal": 2744,
      "ĠWest": 2745,
      "cks": 2746,
      "ĠCenter": 2747,
      "Ġbath": 2748,
      "ĠInt": 2749,
      "ĠAut": 2750,
      "Ġsepar": 2751,
      "ĠSw": 2752,
      "ma": 2753,
      "Ġsafety": 2754,
      "Ġ2014": 2755,
      "Ġdest": 2756,
      "ĠAre": 2757,
      "Ġcook": 2758,
      "Ġlangu": 2759,
      "Ġarri": 2760,
      "istic": 2761,
      "gu": 2762,
      "Ðµ": 2763,
      "Ġintrodu": 2764,
      "cil": 2765,
      "my": 2766,
      "ĠAlso": 2767,
      "ĠPark": 2768,
      "Ġstudent": 2769,
      "Ġsat": 2770,
      "Ġlic": 2771,
      "ĠMore": 2772,
      "year": 2773,
      "Ġ#": 2774,
      "uary": 2775,
      "\".": 2776,
      "Ġspeak": 2777,
      "ĠEvery": 2778,
      "Ġcountries": 2779,
      "Ġ40": 2780,
      "ham": 2781,
      "ĠOff": 2782,
      "Ġprim": 2783,
      "Ġexpert": 2784,
      "Ġparts": 2785,
      "na": 2786,
      "Ġdescrib": 2787,
      "Ġbi": 2788,
      "ĠOf": 2789,
      "Ġresources": 2790,
      "ples": 2791,
      "anc": 2792,
      "erve": 2793,
      "ĠEd": 2794,
      "Ġsale": 2795,
      "Ġlooks": 2796,
      "Ġcele": 2797,
      "Ġcomputer": 2798,
      "Ġpers": 2799,
      "Ġlevels": 2800,
      "wor": 2801,
      "reng": 2802,
      "nds": 2803,
      "Ġplatform": 2804,
      "ters": 2805,
      "ached": 2806,
      "iable": 2807,
      "Ġsense": 2808,
      "aby": 2809,
      "Ġbenefits": 2810,
      "urg": 2811,
      "Ġarr": 2812,
      "Ġprices": 2813,
      "Ġrent": 2814,
      "vey": 2815,
      "Ġplant": 2816,
      "ĠGr": 2817,
      "ĠApril": 2818,
      "Ġsong": 2819,
      "sc": 2820,
      "Ġsche": 2821,
      "Ġlocation": 2822,
      "Ġtrack": 2823,
      "ĠMany": 2824,
      "Ġdeep": 2825,
      "ishing": 2826,
      "ĠHar": 2827,
      "itation": 2828,
      "Ġdecision": 2829,
      "cription": 2830,
      "Ġcollection": 2831,
      "Ġobs": 2832,
      "Ġsqu": 2833,
      "Ġcases": 2834,
      "ky": 2835,
      "ming": 2836,
      "RE": 2837,
      "Ġtit": 2838,
      "Ġdaily": 2839,
      "Ġple": 2840,
      "Ġchance": 2841,
      "Ġdisplay": 2842,
      "Ġrequirements": 2843,
      "ĠEven": 2844,
      "Ġfresh": 2845,
      "Ġimmedi": 2846,
      "Ġcommer": 2847,
      "Ġencoura": 2848,
      "ana": 2849,
      "Ġnational": 2850,
      "Ġshall": 2851,
      "bor": 2852,
      "Ġcand": 2853,
      "Ġmass": 2854,
      "Ġemb": 2855,
      "Ġmachine": 2856,
      "Ġitself": 2857,
      "iddle": 2858,
      "Ġmeeting": 2859,
      "Ġ...": 2860,
      "fl": 2861,
      "Ġminim": 2862,
      "Ġhighly": 2863,
      "akes": 2864,
      "Ġrout": 2865,
      "sy": 2866,
      "Ġcorrect": 2867,
      "Ġsource": 2868,
      "Ġdraw": 2869,
      "Ġexcellent": 2870,
      "Ġhelps": 2871,
      "ĠHealth": 2872,
      "Ġround": 2873,
      "just": 2874,
      "Ġlif": 2875,
      "ĠLet": 2876,
      "Ġsett": 2877,
      "Ð¾": 2878,
      "40": 2879,
      "Ġhuge": 2880,
      "Ġdise": 2881,
      "Ġglobal": 2882,
      "Ġarch": 2883,
      "200": 2884,
      "Ġwarm": 2885,
      "Ġmoment": 2886,
      "Ġbud": 2887,
      "arth": 2888,
      "Ġclos": 2889,
      "Ġmultiple": 2890,
      "Ġlate": 2891,
      "ivity": 2892,
      "Ġded": 2893,
      "Ġfeed": 2894,
      "Ġclick": 2895,
      "Ġthemselves": 2896,
      "lier": 2897,
      "Ġwritten": 2898,
      "Ġgives": 2899,
      "ĠMarch": 2900,
      "Ġlegal": 2901,
      "Ġparents": 2902,
      "Ġinnov": 2903,
      "17": 2904,
      "ession": 2905,
      "Ġtrust": 2906,
      "Ġleading": 2907,
      "16": 2908,
      "Ġhair": 2909,
      "Ġinstead": 2910,
      "ĠGerm": 2911,
      "ams": 2912,
      "Ġessential": 2913,
      "25": 2914,
      "ĠOnce": 2915,
      "Ġaverage": 2916,
      "Ġqual": 2917,
      "ĠDay": 2918,
      "ension": 2919,
      "ĠAmerica": 2920,
      "like": 2921,
      "ooking": 2922,
      "oke": 2923,
      "Ġsolutions": 2924,
      "ological": 2925,
      "Ġextreme": 2926,
      "cast": 2927,
      "ĠIndia": 2928,
      "Ġfram": 2929,
      "mas": 2930,
      "Ġinvolved": 2931,
      "mon": 2932,
      "Ġball": 2933,
      "Ġdeath": 2934,
      "Ġenter": 2935,
      "Ġear": 2936,
      "ĠCounty": 2937,
      "atives": 2938,
      "erous": 2939,
      "Ġimplement": 2940,
      "ĠAny": 2941,
      "illing": 2942,
      "Ġexcept": 2943,
      "Ġscreen": 2944,
      "lim": 2945,
      "Ġimm": 2946,
      "âĢĿ.": 2947,
      "Ġmyself": 2948,
      "Ġgiving": 2949,
      "ests": 2950,
      "ĠFirst": 2951,
      "Ġwrite": 2952,
      "ule": 2953,
      "ĠAc": 2954,
      "Ġcommercial": 2955,
      "Ġattention": 2956,
      "Ġmorning": 2957,
      "ĠInternational": 2958,
      "Ġregist": 2959,
      "Ġtemper": 2960,
      "ctions": 2961,
      "isions": 2962,
      "ĠPa": 2963,
      "wise": 2964,
      "Ġsection": 2965,
      "ĠVal": 2966,
      "OS": 2967,
      "Ġdirectly": 2968,
      "ĠAir": 2969,
      "AM": 2970,
      "itely": 2971,
      "bit": 2972,
      "Ġmobile": 2973,
      "Ġstreng": 2974,
      "hern": 2975,
      "ĠSince": 2976,
      "Ġlost": 2977,
      "igation": 2978,
      "Ġcenter": 2979,
      "edding": 2980,
      "Ġdigital": 2981,
      "ĠJune": 2982,
      "urer": 2983,
      "apan": 2984,
      "Ġmention": 2985,
      "Ġmatch": 2986,
      "inary": 2987,
      "ĠHer": 2988,
      "Ġachieve": 2989,
      "Ġmount": 2990,
      "Ġfully": 2991,
      "Ġfix": 2992,
      "eal": 2993,
      "irth": 2994,
      "Ġclient": 2995,
      "arter": 2996,
      "Ġdoor": 2997,
      "Ġpartners": 2998,
      "ĠNet": 2999,
      "ĠBrit": 3000,
      "Ġgreen": 3001,
      "Ġplaying": 3002,
      "ilies": 3003,
      "idered": 3004,
      "oogle": 3005,
      "Ġlimited": 3006,
      "Ġcam": 3007,
      "Ġimages": 3008,
      "ĠEl": 3009,
      "Ġcareer": 3010,
      "ĠSept": 3011,
      "Ġfavorite": 3012,
      "str": 3013,
      "Ġcreating": 3014,
      "Ġcompletely": 3015,
      "asons": 3016,
      "ĠAssoci": 3017,
      "Ġaw": 3018,
      "ira": 3019,
      "ties": 3020,
      "Ġsurpr": 3021,
      "ĠGet": 3022,
      "ĠWell": 3023,
      "Ġphotos": 3024,
      "ĠMon": 3025,
      "Ġ--": 3026,
      "Ġblood": 3027,
      "aign": 3028,
      "Ġdrug": 3029,
      "Ġtast": 3030,
      "hood": 3031,
      "Ġpromot": 3032,
      "orage": 3033,
      "ĠGreat": 3034,
      "ressed": 3035,
      "aged": 3036,
      "ondon": 3037,
      "Ġkitchen": 3038,
      "Ġtouch": 3039,
      "ms": 3040,
      "Ġhands": 3041,
      "Ġorganization": 3042,
      "Ġrestaur": 3043,
      "ĠFeb": 3044,
      "Ġ21": 3045,
      "Ġsites": 3046,
      "Ġtraditional": 3047,
      "Ġdecided": 3048,
      "Ġsuccessful": 3049,
      "ĠHome": 3050,
      "Ġdeliver": 3051,
      "OT": 3052,
      "ĠCons": 3053,
      "Ġinteresting": 3054,
      "Ġbecame": 3055,
      "Ġplanning": 3056,
      "aly": 3057,
      "agn": 3058,
      "Ġcarry": 3059,
      "ades": 3060,
      "Ġheat": 3061,
      "ĠBus": 3062,
      "Ġcat": 3063,
      "Ġdamage": 3064,
      "Ġreach": 3065,
      "ĠDirect": 3066,
      "Ġrights": 3067,
      "Ġanswer": 3068,
      "urb": 3069,
      "ĠJuly": 3070,
      "Ġgradu": 3071,
      "Ġorganiz": 3072,
      "board": 3073,
      "Ġgoes": 3074,
      "haps": 3075,
      "Ġfurn": 3076,
      "Ġconsist": 3077,
      "Ġsold": 3078,
      "Ġprevent": 3079,
      "mission": 3080,
      "isc": 3081,
      "Ġobtain": 3082,
      "onse": 3083,
      "//": 3084,
      "Ġcommit": 3085,
      "ĠWhy": 3086,
      "OM": 3087,
      "iding": 3088,
      "Ġdep": 3089,
      "Ġaware": 3090,
      "Ġavoid": 3091,
      "Ġnature": 3092,
      "ĠThank": 3093,
      "Ġinteract": 3094,
      "org": 3095,
      "Ġassess": 3096,
      "Ġindividuals": 3097,
      "Ġsuit": 3098,
      "ĠAfric": 3099,
      "Ġexpected": 3100,
      "Ġremember": 3101,
      "ĠJanuary": 3102,
      "Ġpositive": 3103,
      "Ġtick": 3104,
      "ought": 3105,
      "Ġsil": 3106,
      "iction": 3107,
      "Ġcomplex": 3108,
      "Ġsometimes": 3109,
      "13": 3110,
      "uel": 3111,
      "cies": 3112,
      "Ġri": 3113,
      "Ġbegan": 3114,
      "://": 3115,
      "iture": 3116,
      "Ġcourt": 3117,
      "ĠAug": 3118,
      "Ġconsult": 3119,
      "Ġregul": 3120,
      "hest": 3121,
      "Ġadvant": 3122,
      "ĠJapan": 3123,
      "Ġsaw": 3124,
      "Ġfair": 3125,
      "Ġconsidered": 3126,
      "14": 3127,
      "Ġgir": 3128,
      "idents": 3129,
      "ĠEnglish": 3130,
      "hel": 3131,
      "Ġcopy": 3132,
      "enge": 3133,
      "wood": 3134,
      "usion": 3135,
      "Ġhear": 3136,
      "ocol": 3137,
      "Ġattempt": 3138,
      "Ġdocument": 3139,
      "Ġrev": 3140,
      "nes": 3141,
      "Ġprem": 3142,
      "Ġtrip": 3143,
      "Ġpiece": 3144,
      "ĠSim": 3145,
      "Ġproced": 3146,
      "Ġdevice": 3147,
      "uses": 3148,
      "Ġplayers": 3149,
      "ker": 3150,
      "Ġstock": 3151,
      "Ġlab": 3152,
      "ĠSer": 3153,
      "ĠDav": 3154,
      "Ġgroups": 3155,
      "Ġtowards": 3156,
      "Ġpath": 3157,
      "Ġload": 3158,
      "Ġadminist": 3159,
      "Ġdeveloped": 3160,
      "Ġapplications": 3161,
      "Ġfarm": 3162,
      "ĠBro": 3163,
      "Ġsupply": 3164,
      "Ġpred": 3165,
      "Ġconduct": 3166,
      "Ġdifference": 3167,
      "izes": 3168,
      "Ġ2013": 3169,
      "aves": 3170,
      "Ġstarting": 3171,
      "OU": 3172,
      "ications": 3173,
      "Ġwrong": 3174,
      "Ġconcept": 3175,
      "Ġprofession": 3176,
      "ĠHouse": 3177,
      "iles": 3178,
      "Ġwel": 3179,
      "ashing": 3180,
      "iff": 3181,
      "Ġbag": 3182,
      "Ġemerg": 3183,
      "Ġeye": 3184,
      "Ġcas": 3185,
      "ĠSal": 3186,
      "Ġmid": 3187,
      "Ġdepart": 3188,
      "Ġgrowing": 3189,
      "ĠOctober": 3190,
      "Ġwal": 3191,
      "ĠSan": 3192,
      "ĠWhe": 3193,
      "ĠChina": 3194,
      "Ġrelease": 3195,
      "Ġinterested": 3196,
      "Ġhour": 3197,
      "lied": 3198,
      "Ġweeke": 3199,
      "Ġhealthy": 3200,
      "vant": 3201,
      "Ġthinking": 3202,
      "ĠJes": 3203,
      "Ġpropos": 3204,
      "ĠOut": 3205,
      "artment": 3206,
      "Ġlanguage": 3207,
      "ĠRuss": 3208,
      "arden": 3209,
      "ibly": 3210,
      "Ġaltern": 3211,
      "amb": 3212,
      "rences": 3213,
      "verse": 3214,
      "Ġappropri": 3215,
      "Ġanalysis": 3216,
      "Ġ*": 3217,
      "Ġbusinesses": 3218,
      "Ġattract": 3219,
      "Ġreplace": 3220,
      "ĠPresident": 3221,
      "Ġprec": 3222,
      "Ð°": 3223,
      "Ġten": 3224,
      "Ġhous": 3225,
      "Ġformer": 3226,
      "Ġconstruction": 3227,
      "ny": 3228,
      "ude": 3229,
      "Ġcontain": 3230,
      "Ġnote": 3231,
      "Ġcross": 3232,
      "Ġfamilies": 3233,
      "Ġpicture": 3234,
      "enty": 3235,
      "aches": 3236,
      "itute": 3237,
      "ores": 3238,
      "We": 3239,
      "Ġactivity": 3240,
      "band": 3241,
      "reci": 3242,
      "uth": 3243,
      "ĠGener": 3244,
      "oom": 3245,
      "Ġaward": 3246,
      "Ġemployees": 3247,
      "su": 3248,
      "Ġplaces": 3249,
      "Ġpublished": 3250,
      "ĠCoun": 3251,
      "Ġheav": 3252,
      "zy": 3253,
      "Ġdiv": 3254,
      "place": 3255,
      "ara": 3256,
      "Ġhor": 3257,
      "Ġgas": 3258,
      "Ġregion": 3259,
      "ĠTrans": 3260,
      "Ġexactly": 3261,
      "ica": 3262,
      "Ġdecor": 3263,
      "Ġwish": 3264,
      "Ġfine": 3265,
      "arant": 3266,
      "Ġhit": 3267,
      "Ġpurpose": 3268,
      "rought": 3269,
      "Ġcelebr": 3270,
      "Ġdry": 3271,
      "Ġsleep": 3272,
      "ĠCalif": 3273,
      "dd": 3274,
      "ek": 3275,
      "ength": 3276,
      "aries": 3277,
      "chan": 3278,
      "Ġviol": 3279,
      "ĠTechn": 3280,
      "Ġcampaign": 3281,
      "yond": 3282,
      "ĠFriday": 3283,
      "Ġguide": 3284,
      "Ġunderstanding": 3285,
      "ĠRed": 3286,
      "ption": 3287,
      "Ġ198": 3288,
      "Ġsubs": 3289,
      "Ġglass": 3290,
      "ffee": 3291,
      "ĠBlack": 3292,
      "Ġsn": 3293,
      "Ġ2012": 3294,
      "Ġopportunities": 3295,
      "ares": 3296,
      "ĠWind": 3297,
      "Ġprevious": 3298,
      "Ġfight": 3299,
      "ĠLondon": 3300,
      "ĠProf": 3301,
      "Ġpressure": 3302,
      "Ġmoving": 3303,
      "Ġsituation": 3304,
      "ses": 3305,
      "ĠCommun": 3306,
      "EC": 3307,
      "Ġep": 3308,
      "ned": 3309,
      "Ġearn": 3310,
      "ĠChar": 3311,
      "ooth": 3312,
      "Ġge": 3313,
      "Ġgar": 3314,
      "ama": 3315,
      "Ġsubst": 3316,
      "Ġapart": 3317,
      "ĠWar": 3318,
      "Ġled": 3319,
      "ĠAN": 3320,
      "ĠChristmas": 3321,
      "Ġphysical": 3322,
      "Ġcateg": 3323,
      "ĠCour": 3324,
      "Ġinvestment": 3325,
      "ester": 3326,
      "Ġdream": 3327,
      "Ġsmart": 3328,
      "Ġsus": 3329,
      "Ġeat": 3330,
      "Ġdefinitely": 3331,
      "Ġexecut": 3332,
      "Ġjud": 3333,
      "Ġcash": 3334,
      "Ġneigh": 3335,
      "Ġgoals": 3336,
      "Ġeffort": 3337,
      "Ġanaly": 3338,
      "ĠService": 3339,
      "Ġvehicle": 3340,
      "rial": 3341,
      "ST": 3342,
      "Ġwonderful": 3343,
      "Ġ23": 3344,
      "ĠBusiness": 3345,
      "Ġdat": 3346,
      "ĠGoogle": 3347,
      "Ġunit": 3348,
      "Ġreduce": 3349,
      "ris": 3350,
      "rast": 3351,
      "Ġbur": 3352,
      "Ġfelt": 3353,
      "Ġacqu": 3354,
      "Ġowners": 3355,
      "ĠMus": 3356,
      "Ġintegr": 3357,
      "Ġroll": 3358,
      "Ġmat": 3359,
      "Ġmessage": 3360,
      "gram": 3361,
      "Ġinflu": 3362,
      "orge": 3363,
      "ĠRem": 3364,
      "Ġuses": 3365,
      "Ġoffering": 3366,
      "ĠSeptember": 3367,
      "ĠFree": 3368,
      "Ġeasier": 3369,
      "Ġslow": 3370,
      "AP": 3371,
      "pite": 3372,
      "ĠEach": 3373,
      "ĠAlthough": 3374,
      "gy": 3375,
      "uk": 3376,
      "Ġmother": 3377,
      "Ġ60": 3378,
      "ĠGroup": 3379,
      "Ġaim": 3380,
      "ĠDepartment": 3381,
      "ipping": 3382,
      "Ġdistribut": 3383,
      "Ġappoint": 3384,
      "antly": 3385,
      "ovember": 3386,
      "Ġbudget": 3387,
      "sequ": 3388,
      "Ġexerc": 3389,
      "Ġpayment": 3390,
      "Ġenh": 3391,
      "Ġult": 3392,
      "Ġconvers": 3393,
      "Ġfrequ": 3394,
      "het": 3395,
      "ederal": 3396,
      "Ġwait": 3397,
      "Ġbank": 3398,
      "Ġoverall": 3399,
      "Ġcharge": 3400,
      "Ġincreasing": 3401,
      "ĠDesign": 3402,
      "ornia": 3403,
      "ection": 3404,
      "Ġculture": 3405,
      "Ġinitial": 3406,
      "Ġblock": 3407,
      "Ġcollege": 3408,
      "Ġhotel": 3409,
      "Ġinternet": 3410,
      "Ġassociated": 3411,
      "off": 3412,
      "change": 3413,
      "Ġspent": 3414,
      "Ġsurface": 3415,
      "cause": 3416,
      "ĠJesus": 3417,
      "rel": 3418,
      "ĠLa": 3419,
      "Ġpattern": 3420,
      "ĠTod": 3421,
      "porate": 3422,
      "Ġexperienced": 3423,
      "raft": 3424,
      "Ġerr": 3425,
      "Ġfab": 3426,
      "Ġreve": 3427,
      "etic": 3428,
      "Ġindepend": 3429,
      "Ġ22": 3430,
      "Ġbroad": 3431,
      "Ġbenefit": 3432,
      "Ġadvice": 3433,
      "Ġafford": 3434,
      "Ġcapt": 3435,
      "ĠServices": 3436,
      "Ġhistor": 3437,
      "key": 3438,
      "ĠAdd": 3439,
      "Ġsatis": 3440,
      "Ġstuff": 3441,
      "ĠTV": 3442,
      "cember": 3443,
      "Ġoffered": 3444,
      "Ġreleased": 3445,
      "Ġ2011": 3446,
      "Ġaccom": 3447,
      "ĠKing": 3448,
      "Ġschools": 3449,
      "itect": 3450,
      "ruary": 3451,
      "Ġdemand": 3452,
      "Ġpaid": 3453,
      "Ġexisting": 3454,
      "ĠSund": 3455,
      "Ġtele": 3456,
      "Ġgets": 3457,
      "ĠCalifornia": 3458,
      "iation": 3459,
      "ĠIr": 3460,
      "Ġ197": 3461,
      "ET": 3462,
      "sp": 3463,
      "Ġprefer": 3464,
      "ĠOther": 3465,
      "Ġloved": 3466,
      "Ġactive": 3467,
      "Ġbaby": 3468,
      "Ġstorage": 3469,
      "Ġsuff": 3470,
      "ĠEuropean": 3471,
      "Ġ:": 3472,
      "Ġgold": 3473,
      "ato": 3474,
      "Ġrace": 3475,
      "Ġvac": 3476,
      "ĠNovember": 3477,
      "Ġtransfer": 3478,
      "Ġfeeling": 3479,
      "ĠInternet": 3480,
      "arily": 3481,
      "ĠFace": 3482,
      "rapy": 3483,
      "dom": 3484,
      "Ġstru": 3485,
      "Ġaspect": 3486,
      "Ġmovie": 3487,
      "Ġdark": 3488,
      "Ġheard": 3489,
      "Ġnormal": 3490,
      "Ġcontribut": 3491,
      "Ġposted": 3492,
      "Ġspirit": 3493,
      "olute": 3494,
      "Ġrates": 3495,
      "Ġspot": 3496,
      "Ġmeasure": 3497,
      "Ġresponsible": 3498,
      "cking": 3499,
      "ĠInter": 3500,
      "gar": 3501,
      "olf": 3502,
      "duc": 3503,
      "Ġbasic": 3504,
      "ashion": 3505,
      "Ġresponse": 3506,
      "Ġeyes": 3507,
      "inner": 3508,
      "Ġmaxim": 3509,
      "Ġphoto": 3510,
      "Ġadvert": 3511,
      "Ġappreci": 3512,
      "Ġsurround": 3513,
      "Ġserve": 3514,
      "ancy": 3515,
      "urt": 3516,
      "aks": 3517,
      "ĠPri": 3518,
      "Ġtransport": 3519,
      "Ġpages": 3520,
      "Ġdy": 3521,
      "Ġdemon": 3522,
      "Ġoccur": 3523,
      "Ġadult": 3524,
      "ography": 3525,
      "Ġdelivery": 3526,
      "Ġpull": 3527,
      "Ġgave": 3528,
      "Ġoutd": 3529,
      "ĠBest": 3530,
      "Ġtried": 3531,
      "Ġdevices": 3532,
      "Ġwasn": 3533,
      "Ġregarding": 3534,
      "Ġimag": 3535,
      "Ġver": 3536,
      "Ġble": 3537,
      "Ġeffects": 3538,
      "Ġentry": 3539,
      "idential": 3540,
      "Ġshop": 3541,
      "Ġbasis": 3542,
      "Ġcertainly": 3543,
      "sych": 3544,
      "ĠLaw": 3545,
      "ĠAugust": 3546,
      "Ġcomment": 3547,
      "ertain": 3548,
      "bl": 3549,
      "mitted": 3550,
      "Ġhosp": 3551,
      "amed": 3552,
      "ville": 3553,
      "oming": 3554,
      "oph": 3555,
      "Ġmeaning": 3556,
      "ĠOver": 3557,
      "'d": 3558,
      "right": 3559,
      "iling": 3560,
      "Ġstress": 3561,
      "ĠFebruary": 3562,
      "ocks": 3563,
      "Ġcompared": 3564,
      "ruit": 3565,
      "useum": 3566,
      "Ġimmediately": 3567,
      "Ġindic": 3568,
      "Ġincreased": 3569,
      "ences": 3570,
      "Ġpool": 3571,
      "ĠDecember": 3572,
      "Ġweekend": 3573,
      "rench": 3574,
      "Ġborn": 3575,
      "Ġuseful": 3576,
      "enior": 3577,
      "rows": 3578,
      "Ġfell": 3579,
      "ĠCollege": 3580,
      "ils": 3581,
      "Ġeval": 3582,
      "Ġstories": 3583,
      "Ġannual": 3584,
      "Ġhighest": 3585,
      "IL": 3586,
      "Ġwedding": 3587,
      "Ġbehav": 3588,
      "formation": 3589,
      "ĠSystem": 3590,
      "ING": 3591,
      "ĠEast": 3592,
      "Ġreported": 3593,
      "Ġhomes": 3594,
      "ĠPat": 3595,
      "Ġ2010": 3596,
      "Ġpolitical": 3597,
      "mm": 3598,
      "Ġli": 3599,
      "ĠMich": 3600,
      "Ġboy": 3601,
      "ĠSee": 3602,
      "attle": 3603,
      "ĠBel": 3604,
      "Ġcompleted": 3605,
      "Ġpowerful": 3606,
      "ID": 3607,
      "St": 3608,
      "Ġter": 3609,
      "Ġstage": 3610,
      "Ġpen": 3611,
      "iced": 3612,
      "ford": 3613,
      "nded": 3614,
      "itary": 3615,
      "Ġtruly": 3616,
      "Ġnotice": 3617,
      "Ġappropriate": 3618,
      "Ġaccur": 3619,
      "Ġlargest": 3620,
      "word": 3621,
      "Ġcompon": 3622,
      "Th": 3623,
      "lin": 3624,
      "Ġbrought": 3625,
      "ĠGold": 3626,
      "Ġcollabor": 3627,
      "Ġkn": 3628,
      "Ġbeyond": 3629,
      "ĠSatur": 3630,
      "ube": 3631,
      "ĠTHE": 3632,
      "PS": 3633,
      "Ġproduce": 3634,
      "__": 3635,
      "ios": 3636,
      "Ġweather": 3637,
      "Ġadjust": 3638,
      "Ġprotection": 3639,
      "Ġshown": 3640,
      "Ġmark": 3641,
      "Ġemot": 3642,
      "hens": 3643,
      "Ġparticularly": 3644,
      "iant": 3645,
      "Ġbirth": 3646,
      "ĠRead": 3647,
      "Ġcommunication": 3648,
      "ressive": 3649,
      "ĠUp": 3650,
      "Ġguarant": 3651,
      "Ġdegree": 3652,
      "istry": 3653,
      "ologies": 3654,
      "Ġextremely": 3655,
      "ett": 3656,
      "Ġbeginning": 3657,
      "Ġeconomic": 3658,
      "Ġfat": 3659,
      "Ġdro": 3660,
      "Ġallowed": 3661,
      "Ġcandid": 3662,
      "Ġhelping": 3663,
      "Ġevidence": 3664,
      "Ġvict": 3665,
      "Ġlots": 3666,
      "EO": 3667,
      "Ġbottom": 3668,
      "ĠMod": 3669,
      "ague": 3670,
      "ĠÂ£": 3671,
      "Ġnearly": 3672,
      "ĠIN": 3673,
      "aint": 3674,
      "Ġoptim": 3675,
      "Ġreflect": 3676,
      "Ġdisease": 3677,
      "reed": 3678,
      "venue": 3679,
      "ened": 3680,
      "Ġtrade": 3681,
      "house": 3682,
      "Ġtask": 3683,
      "Ġing": 3684,
      "ĠDec": 3685,
      "Ġbelie": 3686,
      "Ġpet": 3687,
      "EL": 3688,
      "Ġstructure": 3689,
      "Ġefficient": 3690,
      "Ġhtt": 3691,
      "ulf": 3692,
      "Ġidentify": 3693,
      "ĠCompany": 3694,
      "Ġrespond": 3695,
      "Ġsust": 3696,
      "aling": 3697,
      "Ġpictures": 3698,
      "Ġcomfortable": 3699,
      "Ġnut": 3700,
      "Ġ+": 3701,
      "ĠGood": 3702,
      "imin": 3703,
      "Ġdead": 3704,
      "Ġfeet": 3705,
      "ida": 3706,
      "Ġmatt": 3707,
      "Ġelectric": 3708,
      "Ġreasons": 3709,
      "Ġutil": 3710,
      "Ġknew": 3711,
      "Ġchallenge": 3712,
      "vest": 3713,
      "Ġplayed": 3714,
      "ager": 3715,
      "Ġguid": 3716,
      "Ġrelax": 3717,
      "acity": 3718,
      "ders": 3719,
      "iam": 3720,
      "Ġhelped": 3721,
      "ĠCle": 3722,
      "In": 3723,
      "Ġthreat": 3724,
      "Ġinterview": 3725,
      "ĠEduc": 3726,
      "Ġrules": 3727,
      "Ġdoll": 3728,
      "lies": 3729,
      "Ġcards": 3730,
      "Ġgrand": 3731,
      "Ġpatient": 3732,
      "ĠIndian": 3733,
      "Ġgreater": 3734,
      "Ġinstitut": 3735,
      "Ġrepair": 3736,
      "Ġsecure": 3737,
      "Ġchanged": 3738,
      "ĠBoard": 3739,
      "Ġthous": 3740,
      "ĠMarket": 3741,
      "Ġcreative": 3742,
      "ĠToday": 3743,
      "Ġmill": 3744,
      "Ġideal": 3745,
      "Ġextend": 3746,
      "Ġbackground": 3747,
      "ibrary": 3748,
      "ĠPost": 3749,
      "ĠSunday": 3750,
      "Ġnumbers": 3751,
      "Ġclin": 3752,
      "Ġprinc": 3753,
      "estern": 3754,
      "ĠOp": 3755,
      "porary": 3756,
      "Ġtechnical": 3757,
      "ronic": 3758,
      "ancing": 3759,
      "ĠPal": 3760,
      "ĠBecause": 3761,
      "Ġson": 3762,
      "Ġteams": 3763,
      "Ġjoin": 3764,
      "Ġinstruct": 3765,
      "Ġsetting": 3766,
      "ĠSaturday": 3767,
      "vis": 3768,
      "Ġnation": 3769,
      "cul": 3770,
      "ĠProgram": 3771,
      "tee": 3772,
      "ously": 3773,
      "Ġfinish": 3774,
      "Ġmethods": 3775,
      "Ġband": 3776,
      "Ġchem": 3777,
      "Ġdress": 3778,
      "Ġtrain": 3779,
      "Ġjourney": 3780,
      "undred": 3781,
      "Ġdouble": 3782,
      "Ġ27": 3783,
      "ĠFacebook": 3784,
      "icing": 3785,
      "atively": 3786,
      "force": 3787,
      "22": 3788,
      "Ġstraight": 3789,
      "bon": 3790,
      "Ġcovered": 3791,
      "Ġsteps": 3792,
      "atever": 3793,
      "oving": 3794,
      "Ġmaybe": 3795,
      "ĠWal": 3796,
      "ĠDuring": 3797,
      "oly": 3798,
      "Ġdiet": 3799,
      "Ġcru": 3800,
      "ĠRet": 3801,
      "ĠâĢ¢": 3802,
      "Ġsort": 3803,
      "dule": 3804,
      "icks": 3805,
      "Ġexhib": 3806,
      "Ġscience": 3807,
      "ĠAssociation": 3808,
      "care": 3809,
      "rant": 3810,
      "Ġmis": 3811,
      "Ġfurniture": 3812,
      "Ġspread": 3813,
      "ĠRec": 3814,
      "wide": 3815,
      "Ġrelig": 3816,
      "Ġdefe": 3817,
      "Ġplayer": 3818,
      "ĠIS": 3819,
      "Ġremain": 3820,
      "ugh": 3821,
      "Ġcoffee": 3822,
      "Ġwine": 3823,
      "que": 3824,
      "Ġlines": 3825,
      "Ġwants": 3826,
      "Ġlarger": 3827,
      "Ġturned": 3828,
      "Ġgift": 3829,
      "hol": 3830,
      "Ġ28": 3831,
      "ĠJe": 3832,
      "Ġorganizations": 3833,
      "Ġselection": 3834,
      "ĠWashing": 3835,
      "ĠYes": 3836,
      "Ġcho": 3837,
      "Ġfear": 3838,
      "ĠMac": 3839,
      "Ġserved": 3840,
      "Ġstudies": 3841,
      "Ġì": 3842,
      "tenance": 3843,
      "Ġestate": 3844,
      "Ġliter": 3845,
      "Ġpartner": 3846,
      "ĠCanada": 3847,
      "Ġfinally": 3848,
      "Ġstrength": 3849,
      "aper": 3850,
      "Ġconnection": 3851,
      "Ġdetermine": 3852,
      "term": 3853,
      "Ġmodels": 3854,
      "ĠMake": 3855,
      "Ġcold": 3856,
      "istics": 3857,
      "Ġalthough": 3858,
      "Ġthanks": 3859,
      "Ġfiles": 3860,
      "Ġtemperature": 3861,
      "Ġadvantage": 3862,
      "arc": 3863,
      "Ġscient": 3864,
      "Ġcab": 3865,
      "Ġsharing": 3866,
      "Ġabsolute": 3867,
      "Ġcapital": 3868,
      "Ġcraft": 3869,
      "Ġestablished": 3870,
      "ĠAccording": 3871,
      "Ġchallenges": 3872,
      "ij": 3873,
      "Ġstates": 3874,
      "Ġannounced": 3875,
      "atically": 3876,
      "sec": 3877,
      "ooks": 3878,
      "ĠStreet": 3879,
      "ivil": 3880,
      "Ġ26": 3881,
      "Ġsaying": 3882,
      "Ġincome": 3883,
      "ipped": 3884,
      "ĠIT": 3885,
      "Ġtherefore": 3886,
      "Ġwindow": 3887,
      "ĠAnt": 3888,
      "Ġexperts": 3889,
      "ĠDevelop": 3890,
      "Ġmechan": 3891,
      "ĠClick": 3892,
      "Ġlength": 3893,
      "des": 3894,
      "ĠMond": 3895,
      "Ġcars": 3896,
      "Ġmicro": 3897,
      "ĠPort": 3898,
      "ĠHall": 3899,
      "Ġclub": 3900,
      "Ġpow": 3901,
      "Ġreports": 3902,
      "erved": 3903,
      "Ġbathroom": 3904,
      "Ġund": 3905,
      "Ġcontinu": 3906,
      "ĠCouncil": 3907,
      "icip": 3908,
      "ĠDist": 3909,
      "coming": 3910,
      "soft": 3911,
      "iques": 3912,
      "Ġahead": 3913,
      "unt": 3914,
      "Ġretail": 3915,
      "odes": 3916,
      "ĠSl": 3917,
      "usive": 3918,
      "Ġfaith": 3919,
      "zz": 3920,
      "asc": 3921,
      "Ġalone": 3922,
      "ĠSub": 3923,
      "unte": 3924,
      "inter": 3925,
      "ĠWhite": 3926,
      "ayer": 3927,
      "Ġvill": 3928,
      "Ġvirt": 3929,
      "ĠGovern": 3930,
      "ĠSocial": 3931,
      "24": 3932,
      "set": 3933,
      "Ġpaint": 3934,
      "ĠDel": 3935,
      "ustr": 3936,
      "Ġearlier": 3937,
      "Ġfra": 3938,
      "Ġopin": 3939,
      "ĠAustralia": 3940,
      "umn": 3941,
      "Ġexpand": 3942,
      "ĠIsland": 3943,
      "Ġhop": 3944,
      "Ġassign": 3945,
      "Ġrequires": 3946,
      "more": 3947,
      "encies": 3948,
      "anch": 3949,
      "Ġoccas": 3950,
      "ĠMor": 3951,
      "Ġstrategy": 3952,
      "ĠAnother": 3953,
      "ĠSom": 3954,
      "order": 3955,
      "itiz": 3956,
      "TM": 3957,
      "Ġdoub": 3958,
      "99": 3959,
      "anging": 3960,
      "Ġacadem": 3961,
      "ault": 3962,
      "Ġdied": 3963,
      "Ġtitle": 3964,
      "Ġsand": 3965,
      "Ġfather": 3966,
      "ĠOh": 3967,
      "Ġthank": 3968,
      "Ġstatement": 3969,
      "Ġonto": 3970,
      "Ġserious": 3971,
      "Ġden": 3972,
      "agram": 3973,
      "Ġconven": 3974,
      "Ġharm": 3975,
      "Ġtips": 3976,
      "Ġgain": 3977,
      "ĠFind": 3978,
      "Ġtim": 3979,
      "ĠWashington": 3980,
      "Ġplus": 3981,
      "Ġpoor": 3982,
      "Ġowner": 3983,
      "Ġcritical": 3984,
      "Ġaren": 3985,
      "Ġdriving": 3986,
      "ray": 3987,
      "aughter": 3988,
      "ĠBritish": 3989,
      "down": 3990,
      "Ġsurv": 3991,
      "Ġpolice": 3992,
      "ĠSupp": 3993,
      "ĠSpe": 3994,
      "Ġfant": 3995,
      "ded": 3996,
      "Ġexperiences": 3997,
      "ĠSch": 3998,
      "ĠPM": 3999,
      "ĠOffice": 4000,
      "Ġdemonstr": 4001,
      "Ġhundred": 4002,
      "see": 4003,
      "Ġchann": 4004,
      "Ġstandards": 4005,
      "Ġflav": 4006,
      "Ġlooked": 4007,
      "iny": 4008,
      "AD": 4009,
      "EM": 4010,
      "ounds": 4011,
      "23": 4012,
      "ĠHot": 4013,
      "Ġshared": 4014,
      "ĠUse": 4015,
      "Ġpieces": 4016,
      "ĠResearch": 4017,
      "Ġorigin": 4018,
      "US": 4019,
      "Ġfill": 4020,
      "Ġmission": 4021,
      "ĠMal": 4022,
      "Ġconv": 4023,
      "hips": 4024,
      "Ġprote": 4025,
      "ĠArch": 4026,
      "Ġfollowed": 4027,
      "Ġmoved": 4028,
      "Ġmiles": 4029,
      "Ġdrop": 4030,
      "ĠSpr": 4031,
      "Ġprofessionals": 4032,
      "Â®": 4033,
      "Ġbatter": 4034,
      "aled": 4035,
      "Ġchurch": 4036,
      "Ġoperation": 4037,
      "esome": 4038,
      "action": 4039,
      "ĠHave": 4040,
      "It": 4041,
      "Ġtraffic": 4042,
      "oul": 4043,
      "Ġstar": 4044,
      "ĠFrench": 4045,
      "Ġstrugg": 4046,
      "Ġwear": 4047,
      "Ġsweet": 4048,
      "iment": 4049,
      "Ġattack": 4050,
      "Ġfactors": 4051,
      "Ġmiddle": 4052,
      "Ġadop": 4053,
      "Ġwhose": 4054,
      "ĠCheck": 4055,
      "Ġbillion": 4056,
      "Ġvot": 4057,
      "Ġcells": 4058,
      "Ġwoman": 4059,
      "urning": 4060,
      "Ġrock": 4061,
      "Ġprogress": 4062,
      "Ġflex": 4063,
      "Ġmanage": 4064,
      "ribute": 4065,
      "ĠSuper": 4066,
      "Ġdedicated": 4067,
      "mp": 4068,
      "itter": 4069,
      "Ġsurg": 4070,
      "Ġplants": 4071,
      "Ġincred": 4072,
      "ĠOb": 4073,
      "Ġadvanced": 4074,
      "ĠDavid": 4075,
      "yn": 4076,
      "Ġcommunities": 4077,
      "Ġhus": 4078,
      "Ġitem": 4079,
      "Ġserver": 4080,
      "ss": 4081,
      "Ġforce": 4082,
      "ĠPaul": 4083,
      "Ġteaching": 4084,
      "Ġslight": 4085,
      "Ġgenerally": 4086,
      "Ġprepared": 4087,
      "Ġsports": 4088,
      "Ġtalking": 4089,
      "Ġâ": 4090,
      "Ġwife": 4091,
      "ĠAv": 4092,
      "Ġiniti": 4093,
      "ION": 4094,
      "Ġparties": 4095,
      "âĢĿ,": 4096,
      "Ġreviews": 4097,
      "45": 4098,
      "itude": 4099,
      "Ġhighlight": 4100,
      "Ġcapacity": 4101,
      "Ġfinding": 4102,
      "field": 4103,
      "ĠSk": 4104,
      "Ġactual": 4105,
      "Ġhimself": 4106,
      "Ġupdate": 4107,
      "ĠMonday": 4108,
      "ĠGreen": 4109,
      "Ġblue": 4110,
      "Ġroof": 4111,
      "pective": 4112,
      "Ġwinter": 4113,
      "lying": 4114,
      "phone": 4115,
      "Ġefforts": 4116,
      "Ġtrou": 4117,
      "Ġgraph": 4118,
      "Ġcry": 4119,
      "ĠFound": 4120,
      "ĠVis": 4121,
      "Ġsolid": 4122,
      "ĠMicro": 4123,
      "Ġprimary": 4124,
      "Ġsty": 4125,
      "Ġdirector": 4126,
      "Ġlimit": 4127,
      "Ġarchitect": 4128,
      "rote": 4129,
      "Ġremove": 4130,
      "Ġletter": 4131,
      "Ġperhaps": 4132,
      "Ġshape": 4133,
      "ĠTop": 4134,
      "Ġstream": 4135,
      "Ġwild": 4136,
      "Ġlands": 4137,
      "ĠiP": 4138,
      "Ġfish": 4139,
      "oms": 4140,
      "iency": 4141,
      "Ġshopping": 4142,
      "body": 4143,
      "Ġtag": 4144,
      "ani": 4145,
      "Ġcompetition": 4146,
      "Ġfan": 4147,
      "Ġincor": 4148,
      "OL": 4149,
      "ĠPC": 4150,
      "Ġdiscount": 4151,
      "amin": 4152,
      "ĠSa": 4153,
      "osure": 4154,
      "Ġvalues": 4155,
      "Ġmaster": 4156,
      "ĠBook": 4157,
      "Ġpractices": 4158,
      "rem": 4159,
      "Ġsources": 4160,
      "ĠPeople": 4161,
      "ĠCourt": 4162,
      "icies": 4163,
      "ĠLast": 4164,
      "Ġhandle": 4165,
      "Ġpassion": 4166,
      "osing": 4167,
      "Ġtend": 4168,
      "ught": 4169,
      "Ġexcl": 4170,
      "eria": 4171,
      "ĠCr": 4172,
      "ĠIns": 4173,
      "aker": 4174,
      "Ġlack": 4175,
      "roid": 4176,
      "Ġhaven": 4177,
      "rep": 4178,
      "unk": 4179,
      "othing": 4180,
      "Ġproperties": 4181,
      "ĠCur": 4182,
      "Ġplaced": 4183,
      "Ġestablish": 4184,
      "Ġschedule": 4185,
      "ady": 4186,
      "rehens": 4187,
      "Ġpros": 4188,
      "Ġdelic": 4189,
      "ĠLoc": 4190,
      "Ġpopulation": 4191,
      "Ġban": 4192,
      "tra": 4193,
      "ĠAC": 4194,
      "Ġbutton": 4195,
      "Ġfees": 4196,
      "Ġfriendly": 4197,
      "standing": 4198,
      "Ġelements": 4199,
      "ĠLear": 4200,
      "Ġopening": 4201,
      "Ġbuying": 4202,
      "Ġtesting": 4203,
      "Ġresist": 4204,
      "Ġclaims": 4205,
      "Ġfigure": 4206,
      "oves": 4207,
      "well": 4208,
      "Ġjobs": 4209,
      "Ġmanufacturer": 4210,
      "ÂŃ": 4211,
      "itors": 4212,
      "Ġmer": 4213,
      "fast": 4214,
      "ament": 4215,
      "Ġdeveloping": 4216,
      "ĠMaster": 4217,
      "Ġbalance": 4218,
      "Ġcamera": 4219,
      "Ġpresented": 4220,
      "35": 4221,
      "orrow": 4222,
      "âĢ²": 4223,
      "cape": 4224,
      "Ġfashion": 4225,
      "sey": 4226,
      "Ġshoot": 4227,
      "IP": 4228,
      "MS": 4229,
      "Ġcontains": 4230,
      "ĠAnge": 4231,
      "Ġmaintenance": 4232,
      "estival": 4233,
      "Ġcleaning": 4234,
      "ĠWhether": 4235,
      "ixt": 4236,
      "Ġkept": 4237,
      "inese": 4238,
      "Ġcourses": 4239,
      "Ġwaste": 4240,
      "ying": 4241,
      "ĠMa": 4242,
      "text": 4243,
      "Ġessay": 4244,
      "bum": 4245,
      "enture": 4246,
      "ĠII": 4247,
      "Ġrefer": 4248,
      "ĠLove": 4249,
      "Ġbeg": 4250,
      "Ġadding": 4251,
      "rees": 4252,
      "Ġbreat": 4253,
      "ald": 4254,
      "Ġpush": 4255,
      "ĠThurs": 4256,
      "Ġclasses": 4257,
      "apter": 4258,
      "enses": 4259,
      "Ġkeeping": 4260,
      "Ġeight": 4261,
      "ero": 4262,
      "ado": 4263,
      "Ġdiscover": 4264,
      "Ġcentury": 4265,
      "hem": 4266,
      "ooper": 4267,
      "ĠDown": 4268,
      "ĠAnn": 4269,
      "Ġlearned": 4270,
      "Ġrich": 4271,
      "Ġissued": 4272,
      "ĠClub": 4273,
      "Ġbow": 4274,
      "ĠChurch": 4275,
      "Ġingred": 4276,
      "ĠManagement": 4277,
      "Ġmotor": 4278,
      "Ġdang": 4279,
      "ĠTex": 4280,
      "Ġvision": 4281,
      "gen": 4282,
      "Ġquarter": 4283,
      "ĠFlor": 4284,
      "Ġcoverage": 4285,
      "Ġloan": 4286,
      "rig": 4287,
      "Ġfol": 4288,
      "mar": 4289,
      "ico": 4290,
      "Ġgarden": 4291,
      "ĠUnder": 4292,
      "icking": 4293,
      "ĠDem": 4294,
      "roud": 4295,
      "Ġhelpful": 4296,
      "ĠSecurity": 4297,
      "hop": 4298,
      "ĠWord": 4299,
      "ĠWeb": 4300,
      "Ġfacilities": 4301,
      "Ġice": 4302,
      "ortunately": 4303,
      "Ġrepe": 4304,
      "Ġbiggest": 4305,
      "cel": 4306,
      "Ġflu": 4307,
      "Ġrelevant": 4308,
      "100": 4309,
      "ĠCare": 4310,
      "Ġbedroom": 4311,
      "Ġsession": 4312,
      "Ġcup": 4313,
      "Ġproduced": 4314,
      "ocolate": 4315,
      "Ġlisted": 4316,
      "ĠInstitute": 4317,
      "Ġ2009": 4318,
      "Ġheavy": 4319,
      "Ġvoice": 4320,
      "Ġsmooth": 4321,
      "dy": 4322,
      "Ġcast": 4323,
      "Ġfinished": 4324,
      "Ġvisual": 4325,
      "Ġcolors": 4326,
      "Ġremind": 4327,
      "Ġprovider": 4328,
      "):": 4329,
      "Ġpark": 4330,
      "Ġpolicies": 4331,
      "Ġwelcome": 4332,
      "Ġhusband": 4333,
      "Ġcloud": 4334,
      "Ġnumerous": 4335,
      "ĠClass": 4336,
      "Ġinvestig": 4337,
      "ael": 4338,
      "Ġnamed": 4339,
      "Ġpeace": 4340,
      "Ġcentral": 4341,
      "Ġwire": 4342,
      "Ġnames": 4343,
      "Ġsustain": 4344,
      "bu": 4345,
      "Ġexpensive": 4346,
      "ĠGeneral": 4347,
      "ĠCustom": 4348,
      "ĠMart": 4349,
      "Ġseeing": 4350,
      "Ġdecisions": 4351,
      "Ġcheap": 4352,
      "Ġexplore": 4353,
      "Ġbeauty": 4354,
      "Ġdump": 4355,
      "Ġaudience": 4356,
      "70": 4357,
      "Ġoperations": 4358,
      "Ġscen": 4359,
      "ĠChristian": 4360,
      "Ġexercise": 4361,
      "ĠMount": 4362,
      "ĠCommission": 4363,
      "ĠEducation": 4364,
      "Ġcore": 4365,
      "Ġclimate": 4366,
      "Ġunf": 4367,
      "Ġforms": 4368,
      "Ġsmaller": 4369,
      "Ġchanging": 4370,
      "rief": 4371,
      "oe": 4372,
      "Ġspring": 4373,
      "Ġguests": 4374,
      "Ġconcent": 4375,
      "Ġcouldn": 4376,
      "Ġtransl": 4377,
      "irection": 4378,
      "Ġsteel": 4379,
      "ari": 4380,
      "ĠSing": 4381,
      "Ġotherwise": 4382,
      "Ġfunds": 4383,
      "ĠTake": 4384,
      "Ġcancer": 4385,
      "Ġrestrict": 4386,
      "Ġwat": 4387,
      "isation": 4388,
      "using": 4389,
      "ĠMet": 4390,
      "acing": 4391,
      "Ġpassed": 4392,
      "ĠWindows": 4393,
      "500": 4394,
      "bed": 4395,
      "¿½": 4396,
      "ï¿½": 4397,
      "Ġir": 4398,
      "Ġreality": 4399,
      "Ġrecords": 4400,
      "Ġtree": 4401,
      "Ġadvance": 4402,
      "za": 4403,
      "Ġdoctor": 4404,
      "ĠLife": 4405,
      "ĠYear": 4406,
      "Ġtruth": 4407,
      "Ġcontinued": 4408,
      "Ġrooms": 4409,
      "Ġfans": 4410,
      "Ġmist": 4411,
      "ĠLike": 4412,
      "Ġplenty": 4413,
      "Ġolder": 4414,
      "ĠThursday": 4415,
      "leg": 4416,
      "Ġholiday": 4417,
      "Ġsnow": 4418,
      "Ġfee": 4419,
      "Ġgone": 4420,
      "ĠCall": 4421,
      "ĠPR": 4422,
      "Ġconference": 4423,
      "Ġseparate": 4424,
      "ĠPower": 4425,
      "ipl": 4426,
      "Ġleader": 4427,
      "Ġbrain": 4428,
      "Ġagreement": 4429,
      "88": 4430,
      "ĠTues": 4431,
      "Ġevening": 4432,
      "Ġmemory": 4433,
      "Ġcaused": 4434,
      "Ġwrote": 4435,
      "Ġlose": 4436,
      "Ġselected": 4437,
      "icine": 4438,
      "semb": 4439,
      "Ġrob": 4440,
      "Ġ80": 4441,
      "Ġobv": 4442,
      "Ġcharacters": 4443,
      "Ġstatus": 4444,
      "rical": 4445,
      "olic": 4446,
      "ĠChinese": 4447,
      "Ġviews": 4448,
      "ĠAP": 4449,
      "Ġdecide": 4450,
      "65": 4451,
      "vision": 4452,
      "Ġresidents": 4453,
      "Ġ2008": 4454,
      "ommod": 4455,
      "Ġforeign": 4456,
      ".)": 4457,
      "Ġswitch": 4458,
      "arge": 4459,
      "Ġstation": 4460,
      "Ġindependent": 4461,
      "pm": 4462,
      "Ġbill": 4463,
      "works": 4464,
      "Ġtoward": 4465,
      "Ġveget": 4466,
      "Ġanti": 4467,
      "Ġarrange": 4468,
      "Ġcomments": 4469,
      "Ġconnected": 4470,
      "mark": 4471,
      "Ġeating": 4472,
      "azon": 4473,
      "Ġdriver": 4474,
      "ĠTrump": 4475,
      "amm": 4476,
      "iber": 4477,
      "Ġdocuments": 4478,
      "ĠWater": 4479,
      "Ġsea": 4480,
      "Ġvalid": 4481,
      "isl": 4482,
      "Ġfamous": 4483,
      "Ġvolunte": 4484,
      "ĠRel": 4485,
      "Ġanimals": 4486,
      "omet": 4487,
      "ĠPlan": 4488,
      "ĠSur": 4489,
      "ĠWho": 4490,
      "Ġseven": 4491,
      "ĠJames": 4492,
      "Ġwaiting": 4493,
      "ĠHy": 4494,
      "ĠElect": 4495,
      "ishes": 4496,
      "Ġdinner": 4497,
      "Ġeth": 4498,
      "ternal": 4499,
      "ona": 4500,
      "Ġapplied": 4501,
      "ka": 4502,
      "rael": 4503,
      "ĠBank": 4504,
      "ĠForm": 4505,
      "Ġdisapp": 4506,
      "Ġworkers": 4507,
      "Ġmentioned": 4508,
      "ĠJew": 4509,
      "Ġmaximum": 4510,
      "overy": 4511,
      "Ġluck": 4512,
      "ĠSil": 4513,
      "Ġbecomes": 4514,
      "oyal": 4515,
      "Ġcream": 4516,
      "Ġoperating": 4517,
      "Ġshot": 4518,
      "Ġlinks": 4519,
      "free": 4520,
      "ĠCong": 4521,
      "eds": 4522,
      "Ġgeneration": 4523,
      "Ġforget": 4524,
      "Ġbecoming": 4525,
      "Ġexcited": 4526,
      "Ġ90": 4527,
      "Ġdiagn": 4528,
      "raw": 4529,
      "ĠEv": 4530,
      "Ġmovement": 4531,
      "gl": 4532,
      "Ġsto": 4533,
      "Ġeconomy": 4534,
      "Ġcounter": 4535,
      "tion": 4536,
      "Ġsch": 4537,
      "Ġpsych": 4538,
      "Ġdesigns": 4539,
      "Ġtaste": 4540,
      "ĠJer": 4541,
      "Ġworry": 4542,
      "Ġrare": 4543,
      "top": 4544,
      "ula": 4545,
      "Ġhappens": 4546,
      "Ġfocused": 4547,
      "fit": 4548,
      "ĠBuild": 4549,
      "itar": 4550,
      "Ġcombination": 4551,
      "Ġ29": 4552,
      "Ġtechniques": 4553,
      "ĠSum": 4554,
      "Ġsector": 4555,
      "Ġmedium": 4556,
      "Ġmulti": 4557,
      "Ġlaunch": 4558,
      "Ġreference": 4559,
      "Ġdecl": 4560,
      "Ġencourage": 4561,
      "aven": 4562,
      "\",": 4563,
      "Ġrecipe": 4564,
      "Ġsociety": 4565,
      "Ġmajority": 4566,
      "nding": 4567,
      "ellow": 4568,
      "box": 4569,
      "rupt": 4570,
      "Ġproud": 4571,
      "ĠST": 4572,
      "ota": 4573,
      "Ġalbum": 4574,
      "Ġpackage": 4575,
      "ĠTexas": 4576,
      "Ġbought": 4577,
      "ĠFore": 4578,
      "Ġvan": 4579,
      "Ġbright": 4580,
      "Ġran": 4581,
      "Ġspect": 4582,
      "Ġrecip": 4583,
      "Ġenvironmental": 4584,
      "Ġmilitary": 4585,
      "ĠWhere": 4586,
      "ented": 4587,
      "abase": 4588,
      "ĠOF": 4589,
      "Ġrestaurant": 4590,
      "ĠTuesday": 4591,
      "NA": 4592,
      "vere": 4593,
      "Ġargu": 4594,
      "cean": 4595,
      "abilities": 4596,
      "inger": 4597,
      "ĠWed": 4598,
      "ĠÑ": 4599,
      "Ġdisp": 4600,
      "ĠDirector": 4601,
      "ech": 4602,
      "ctors": 4603,
      "ocr": 4604,
      "ervation": 4605,
      "acking": 4606,
      "Ġcompar": 4607,
      "ĠBre": 4608,
      "Ġrain": 4609,
      "Ġinstallation": 4610,
      "Ġoutdoor": 4611,
      "Ġprocesses": 4612,
      "Ġupgra": 4613,
      "Ġsched": 4614,
      "!!!": 4615,
      "inct": 4616,
      "Ġflat": 4617,
      "ĠNews": 4618,
      "ĠPhot": 4619,
      "Ġwhatever": 4620,
      "ferences": 4621,
      "Ġestim": 4622,
      "ĠUSA": 4623,
      "umin": 4624,
      "Ġvisitors": 4625,
      "arr": 4626,
      "Ġrelationships": 4627,
      "Ġbrows": 4628,
      "Ġtom": 4629,
      "Ġremains": 4630,
      "Ġspecies": 4631,
      "ĠEngine": 4632,
      "Ġrat": 4633,
      "Ġteachers": 4634,
      "IV": 4635,
      "Ġimpl": 4636,
      "Ġsitu": 4637,
      "Ġsounds": 4638,
      "ĠKeep": 4639,
      "iance": 4640,
      "Ġachie": 4641,
      "ĠTwo": 4642,
      "Ġaccommod": 4643,
      "ĠSun": 4644,
      "ym": 4645,
      "Ġcitiz": 4646,
      "Ġlux": 4647,
      "Ġstick": 4648,
      "ĠLight": 4649,
      "Ġsets": 4650,
      "ĠCam": 4651,
      "ordin": 4652,
      "Ġdescribed": 4653,
      "Ġminimum": 4654,
      "28": 4655,
      "CA": 4656,
      "Ġmo": 4657,
      "ĠBefore": 4658,
      "Ġexciting": 4659,
      "iliar": 4660,
      "Ġthousands": 4661,
      "icate": 4662,
      "Ġcalls": 4663,
      "Ġopened": 4664,
      "Ġtypically": 4665,
      "know": 4666,
      "Ġalternative": 4667,
      "UR": 4668,
      "Ġsenior": 4669,
      "Ġassistance": 4670,
      "ĠProfess": 4671,
      "Ġanc": 4672,
      "Ġtheme": 4673,
      "Ġmetal": 4674,
      "ship": 4675,
      "Ġcomprehens": 4676,
      "ĠChild": 4677,
      "Ġprincip": 4678,
      "Ġthus": 4679,
      "osis": 4680,
      "Ġartist": 4681,
      "Ġcolour": 4682,
      "Ġperformed": 4683,
      "BC": 4684,
      "Ġdirection": 4685,
      "Ġstreet": 4686,
      "ĠRock": 4687,
      "osition": 4688,
      "Ġgrant": 4689,
      "Ġscore": 4690,
      "Ġmanager": 4691,
      "Ġmeant": 4692,
      "Ġ@": 4693,
      "ston": 4694,
      "iled": 4695,
      "Ġextensive": 4696,
      "Ġgall": 4697,
      "icken": 4698,
      "Ġteacher": 4699,
      "ifts": 4700,
      "pet": 4701,
      "Ġmap": 4702,
      "75": 4703,
      "LE": 4704,
      "asy": 4705,
      "ĠMem": 4706,
      "ĠRoad": 4707,
      "ĠPublic": 4708,
      "Ġhappened": 4709,
      "ga": 4710,
      "IM": 4711,
      "gn": 4712,
      "ĠBoth": 4713,
      "iences": 4714,
      "Ġdistance": 4715,
      "Ġdepartment": 4716,
      "miss": 4717,
      "Ġprocessing": 4718,
      "iers": 4719,
      "Ġ?": 4720,
      "Ġcorporate": 4721,
      "ĠPhil": 4722,
      "la": 4723,
      "ĠSam": 4724,
      "ĠRich": 4725,
      "Ġleaving": 4726,
      "Ġ31": 4727,
      "Ġconfig": 4728,
      "Ġfold": 4729,
      "lands": 4730,
      "Ġclassic": 4731,
      "Ġ|": 4732,
      "ĠMag": 4733,
      "ception": 4734,
      "Ġformat": 4735,
      "Ġwww": 4736,
      "orial": 4737,
      "ĠLord": 4738,
      "Ġquant": 4739,
      "ructure": 4740,
      "Ġpanel": 4741,
      "Ġdur": 4742,
      "Ġunits": 4743,
      "ĠProject": 4744,
      "ĠLake": 4745,
      "Ġspending": 4746,
      "Ġearth": 4747,
      "imb": 4748,
      "Ġjoint": 4749,
      "ĠIsrael": 4750,
      "Ġpreviously": 4751,
      "Ġcompl": 4752,
      "ĠPlay": 4753,
      "ifying": 4754,
      "Ġsurgery": 4755,
      "oors": 4756,
      "omin": 4757,
      "Ġcontinues": 4758,
      "night": 4759,
      "Ġshowing": 4760,
      "gment": 4761,
      "Ġexpress": 4762,
      "ĠFam": 4763,
      "Ġmarkets": 4764,
      "OW": 4765,
      "ĠBay": 4766,
      "uable": 4767,
      "Ġdram": 4768,
      "Ġmanaged": 4769,
      "aming": 4770,
      "ĠFlorida": 4771,
      "IG": 4772,
      "rey": 4773,
      "unning": 4774,
      "Ġleadership": 4775,
      "Ġhttp": 4776,
      "Ġcontroll": 4777,
      "ximately": 4778,
      "Ġbon": 4779,
      "ails": 4780,
      "Ġagency": 4781,
      "craft": 4782,
      "Ġminute": 4783,
      "Ġ=": 4784,
      "ĠAfrica": 4785,
      "emporary": 4786,
      "Ġshipping": 4787,
      "Ġadapt": 4788,
      "Ġinstru": 4789,
      "Ch": 4790,
      "ĠBal": 4791,
      "Ġconstruct": 4792,
      "Ġacademic": 4793,
      "rab": 4794,
      "Ġselling": 4795,
      "anta": 4796,
      "ĠStr": 4797,
      "Ġstarts": 4798,
      "Ġsecret": 4799,
      "Ġclearly": 4800,
      "Ġpractical": 4801,
      "Ġrub": 4802,
      "estic": 4803,
      "Ġartists": 4804,
      "Ġwebsites": 4805,
      "uled": 4806,
      "ĠIts": 4807,
      "apers": 4808,
      "Ġacid": 4809,
      "Ġproperly": 4810,
      "PA": 4811,
      "Ġfem": 4812,
      "Ġbrings": 4813,
      "ĠScience": 4814,
      "Ġevalu": 4815,
      "ĠTheir": 4816,
      "ago": 4817,
      "Ġinternal": 4818,
      "90": 4819,
      "Ġclosed": 4820,
      "Ġfootball": 4821,
      "ĠAS": 4822,
      "ĠMary": 4823,
      "Ġshower": 4824,
      "ads": 4825,
      "iration": 4826,
      "Ġmanner": 4827,
      "Ġunless": 4828,
      "Ġsav": 4829,
      "Ġlaws": 4830,
      "ĠOpen": 4831,
      "asks": 4832,
      "Ġaffordable": 4833,
      "ĠDevelopment": 4834,
      "Ġpair": 4835,
      "Ġmort": 4836,
      "iders": 4837,
      "Ġstrategies": 4838,
      "Ġmagn": 4839,
      "bour": 4840,
      "Ġdaughter": 4841,
      "Ġreached": 4842,
      "ĠPet": 4843,
      "Ġwouldn": 4844,
      "Ġ70": 4845,
      "pid": 4846,
      "Ġbul": 4847,
      "Ġinstalled": 4848,
      "Ġsym": 4849,
      "Ġpresence": 4850,
      "Ġlisten": 4851,
      "Ġmenu": 4852,
      "Ġfuel": 4853,
      "Ġserving": 4854,
      "Ġspecifically": 4855,
      "ĠVol": 4856,
      "ĠOnline": 4857,
      "Ġresponsibility": 4858,
      "Ġrecommended": 4859,
      "Ġconcerns": 4860,
      "asure": 4861,
      "Ġhospital": 4862,
      "Ġ2007": 4863,
      "Ġenjoyed": 4864,
      "Ġinjury": 4865,
      "Ġegg": 4866,
      "Ġcatch": 4867,
      "ĠMiss": 4868,
      "ĠRiver": 4869,
      "Ġwindows": 4870,
      "Ġder": 4871,
      "ĠMark": 4872,
      "ĠJour": 4873,
      "Ġvolume": 4874,
      "Ġguess": 4875,
      "ĠEngland": 4876,
      "Ġawesome": 4877,
      "add": 4878,
      "ampions": 4879,
      "Ġruns": 4880,
      "Ġpredict": 4881,
      "hi": 4882,
      "ĠHel": 4883,
      "Ġhonest": 4884,
      "Ġfilled": 4885,
      "ĠStar": 4886,
      "Ġmostly": 4887,
      "Ġnovel": 4888,
      "Ġbusy": 4889,
      "Ġthoughts": 4890,
      "pond": 4891,
      "icon": 4892,
      "ĠBet": 4893,
      "going": 4894,
      "Ġcategory": 4895,
      "DA": 4896,
      "Ġlabor": 4897,
      "ĠHist": 4898,
      "Ġpoll": 4899,
      "Ġshowed": 4900,
      "ĠGermany": 4901,
      "Ġment": 4902,
      "Ġimportance": 4903,
      "Ġdistrict": 4904,
      "Ġlighting": 4905,
      "Ġfacility": 4906,
      "Ġlaun": 4907,
      "ENT": 4908,
      "ette": 4909,
      "outhern": 4910,
      "Ġactions": 4911,
      "95": 4912,
      "rene": 4913,
      "Ġinstance": 4914,
      "Ġtechnologies": 4915,
      "Ġdynam": 4916,
      "ander": 4917,
      "fficient": 4918,
      "Ġexpertise": 4919,
      "ĠMill": 4920,
      "Ġposts": 4921,
      "www": 4922,
      "ĠRepublic": 4923,
      "32": 4924,
      "Ġbeach": 4925,
      "ĠBill": 4926,
      "Ġaudio": 4927,
      "Ġleaves": 4928,
      "Ġpresident": 4929,
      "ĠGerman": 4930,
      "ĠWednes": 4931,
      "IR": 4932,
      "ĠBen": 4933,
      "ĠMichael": 4934,
      "Ġingredients": 4935,
      "Ġsouth": 4936,
      "ĠInformation": 4937,
      "Ġchoices": 4938,
      "Ġdut": 4939,
      "rian": 4940,
      "Ġknows": 4941,
      "Ð¸": 4942,
      "Ġdiscussion": 4943,
      "Ġfederal": 4944,
      "Ġchocolate": 4945,
      "ĠExp": 4946,
      "Ġspl": 4947,
      "ulty": 4948,
      "poses": 4949,
      "Ġfabric": 4950,
      "Ġdebt": 4951,
      "orthern": 4952,
      "Ġindustrial": 4953,
      "ĠTor": 4954,
      "Ġbrother": 4955,
      "nel": 4956,
      "Ġattor": 4957,
      "Ġpal": 4958,
      "Ġpromote": 4959,
      "Ġprepare": 4960,
      "Ġabsolutely": 4961,
      "unction": 4962,
      "oma": 4963,
      "ĠDri": 4964,
      "ano": 4965,
      "Ġarticles": 4966,
      "Ġleads": 4967,
      "prise": 4968,
      "Ġchemical": 4969,
      "ror": 4970,
      "Ġdetect": 4971,
      "Ġallowing": 4972,
      "Ġtickets": 4973,
      "ta": 4974,
      "Ġcivil": 4975,
      "Ġtow": 4976,
      "uries": 4977,
      "Ġvote": 4978,
      "Ġvideos": 4979,
      "point": 4980,
      "sing": 4981,
      "inding": 4982,
      "Ġseek": 4983,
      "ĠApple": 4984,
      "mosp": 4985,
      "itness": 4986,
      "Ġhyd": 4987,
      "Ġuniversity": 4988,
      "ulate": 4989,
      "Ġscale": 4990,
      "Ġmotiv": 4991,
      "Ġvehicles": 4992,
      "uce": 4993,
      "Ġemergency": 4994,
      "ya": 4995,
      "ĠUN": 4996,
      "ĠData": 4997,
      "Ġspons": 4998,
      "Ġsatisf": 4999,
      "ĠGovernment": 5000,
      "ĠTO": 5001,
      "ĠOR": 5002,
      "Ġ500": 5003,
      "Ġcombined": 5004,
      "IA": 5005,
      "Ġcorner": 5006,
      "Ġenhance": 5007,
      "uit": 5008,
      "Ġaccident": 5009,
      "ĠNext": 5010,
      "Ġwalking": 5011,
      "ipp": 5012,
      "Ġdining": 5013,
      "Ġstores": 5014,
      "Ġhom": 5015,
      "ĠMo": 5016,
      "Ġwilling": 5017,
      "Ġappeal": 5018,
      "Ġsquare": 5019,
      "Ġneighbor": 5020,
      "Ġaccompl": 5021,
      "Ġslightly": 5022,
      "known": 5023,
      "LC": 5024,
      "gal": 5025,
      "Ġsurvey": 5026,
      "Ġtopic": 5027,
      "ĠFrance": 5028,
      "Ġcasino": 5029,
      "Ġign": 5030,
      "ĠFire": 5031,
      "Ġanywhere": 5032,
      "ĠAmazon": 5033,
      "ĠCamp": 5034,
      "Ġunc": 5035,
      "Ġcabin": 5036,
      "essions": 5037,
      "Ġexchange": 5038,
      "alls": 5039,
      "Ġinterp": 5040,
      "Ġputting": 5041,
      "ĠBack": 5042,
      "ĠThrough": 5043,
      "Ġdish": 5044,
      "Ġ35": 5045,
      "Ġpurposes": 5046,
      "Ġdetailed": 5047,
      "BA": 5048,
      "ulated": 5049,
      "Ġupdated": 5050,
      "ilit": 5051,
      "Ġfantastic": 5052,
      "Ġdecre": 5053,
      "obe": 5054,
      "Ġlocations": 5055,
      "BS": 5056,
      "noon": 5057,
      "aser": 5058,
      "osen": 5059,
      "Ġsymb": 5060,
      "ĠBlue": 5061,
      "26": 5062,
      "hent": 5063,
      "illa": 5064,
      "ulations": 5065,
      "Ġadvertising": 5066,
      "Ġcomponents": 5067,
      "den": 5068,
      "ugg": 5069,
      "ĠWork": 5070,
      "Ġride": 5071,
      "outs": 5072,
      "Ġgoods": 5073,
      "yer": 5074,
      "Ġcontext": 5075,
      "ĠMain": 5076,
      "ĠDet": 5077,
      "Ġnegative": 5078,
      "ĠWood": 5079,
      "Ġinnovative": 5080,
      "ala": 5081,
      "Ġauto": 5082,
      "21": 5083,
      "Ġking": 5084,
      "ĠSpecial": 5085,
      "Ġproceed": 5086,
      "Ġphotograph": 5087,
      "Ġerror": 5088,
      "igence": 5089,
      "Ġregistered": 5090,
      "Ġsuitable": 5091,
      "Ġprotein": 5092,
      "Ġap": 5093,
      "Ġdie": 5094,
      "ĠMex": 5095,
      "Ġplastic": 5096,
      "Ġteach": 5097,
      "ĠRober": 5098,
      "Ġjump": 5099,
      "Ġtransform": 5100,
      "ucle": 5101,
      "ĠWednesday": 5102,
      "Ã¡": 5103,
      "Ġship": 5104,
      "Ġinterior": 5105,
      "Ġjournal": 5106,
      "no": 5107,
      "state": 5108,
      "ĠThose": 5109,
      "Ġsolar": 5110,
      "zen": 5111,
      "Ġcities": 5112,
      "ĠBer": 5113,
      "Ġourselves": 5114,
      "Ġcomprehensive": 5115,
      "Ġnav": 5116,
      "Ġaspects": 5117,
      "icians": 5118,
      "Ġwatching": 5119,
      "Ġbehavior": 5120,
      "Ġtherapy": 5121,
      "ĠPay": 5122,
      "ĠHum": 5123,
      "ĠRa": 5124,
      "Ġprofit": 5125,
      "Ġapproved": 5126,
      "Ġprocedure": 5127,
      "Ġelement": 5128,
      "ĠLat": 5129,
      "Ġcultural": 5130,
      "Ġappears": 5131,
      "cles": 5132,
      "ĠMot": 5133,
      "33": 5134,
      "ĠBig": 5135,
      "ria": 5136,
      "Ġedge": 5137,
      "Ġemployee": 5138,
      "Ġopinion": 5139,
      "ivered": 5140,
      "ĠThom": 5141,
      "Ġconfirm": 5142,
      "ĠConst": 5143,
      "Ġdial": 5144,
      "Ġreliable": 5145,
      "ĠFoundation": 5146,
      "ĠMel": 5147,
      "Ġcris": 5148,
      "ste": 5149,
      "rier": 5150,
      "Ġexplain": 5151,
      "Ġer": 5152,
      "antic": 5153,
      "ĠMuseum": 5154,
      "ĠOnly": 5155,
      "Ġfunctions": 5156,
      "Ġterr": 5157,
      "Ġcentre": 5158,
      "Ġlicens": 5159,
      "ĠDistrict": 5160,
      "mail": 5161,
      "Ġoutput": 5162,
      "Ġjoined": 5163,
      "Ġautomatically": 5164,
      "ales": 5165,
      "Ġnorth": 5166,
      "Ġcommitted": 5167,
      "Ġreput": 5168,
      "ĠID": 5169,
      "othes": 5170,
      "ĠStart": 5171,
      "Ġfamiliar": 5172,
      "Ġended": 5173,
      "Ġapproximately": 5174,
      "ĠQue": 5175,
      "Ġtempl": 5176,
      "list": 5177,
      "rd": 5178,
      "ĠMach": 5179,
      "Ġgirl": 5180,
      "ĠSol": 5181,
      "Ġflowers": 5182,
      "Ġrule": 5183,
      "ĠExper": 5184,
      "ĠEnter": 5185,
      "Ġframe": 5186,
      "hetic": 5187,
      "Ġsport": 5188,
      "ĠProduct": 5189,
      "Ġthick": 5190,
      "ĠTur": 5191,
      "ĠValley": 5192,
      "Ġbike": 5193,
      "ĠTy": 5194,
      "oles": 5195,
      "ĠDiv": 5196,
      "Ġsem": 5197,
      "Ġarm": 5198,
      "Ġdesk": 5199,
      "ĠColor": 5200,
      "Wh": 5201,
      "Ġraised": 5202,
      "ĠTime": 5203,
      "Ġbuildings": 5204,
      "eed": 5205,
      "ĠAcadem": 5206,
      "ĠJapanese": 5207,
      "Ġton": 5208,
      "Ġburn": 5209,
      "omb": 5210,
      "ĠWall": 5211,
      "ĠBeach": 5212,
      "ĠCentral": 5213,
      "Ġfunding": 5214,
      "ĠCert": 5215,
      "Ġdepos": 5216,
      "Ġlovely": 5217,
      "Ġconsumers": 5218,
      "Ġdu": 5219,
      "Ġdespite": 5220,
      "Ġdelicious": 5221,
      "CC": 5222,
      "Ġatmosp": 5223,
      "Ġpossibly": 5224,
      "Ġeducational": 5225,
      "Ġdrink": 5226,
      "Ġdepending": 5227,
      "Ġthread": 5228,
      "ĠNote": 5229,
      "Ġelimin": 5230,
      "Ġdatabase": 5231,
      "friend": 5232,
      "Ġaid": 5233,
      "Ġweak": 5234,
      "reek": 5235,
      "liance": 5236,
      "Ġboat": 5237,
      "Ġradio": 5238,
      "ĠCommunity": 5239,
      "DF": 5240,
      "water": 5241,
      "Ġlunch": 5242,
      "ĠAddition": 5243,
      "44": 5244,
      "Ġhun": 5245,
      "Ġlived": 5246,
      "Ġsympt": 5247,
      "fin": 5248,
      "ĠLou": 5249,
      "Ġenable": 5250,
      "Ġteeth": 5251,
      "Ġtrees": 5252,
      "Ġbrands": 5253,
      "Ġfle": 5254,
      "ĠSearch": 5255,
      "Ġagent": 5256,
      "RA": 5257,
      "col": 5258,
      "lam": 5259,
      "ĠCP": 5260,
      "Ġsalt": 5261,
      "Ġtotally": 5262,
      "Ġcircum": 5263,
      "ĠUsing": 5264,
      "Ġquot": 5265,
      "SA": 5266,
      "ĠCard": 5267,
      "Ġconfidence": 5268,
      "cohol": 5269,
      "Ġfavour": 5270,
      "ĠCap": 5271,
      "ulture": 5272,
      "Ġrapid": 5273,
      "ront": 5274,
      "ĠAlex": 5275,
      "Ġwarrant": 5276,
      "rastructure": 5277,
      "ĠMicrosoft": 5278,
      "hab": 5279,
      "Ġresource": 5280,
      "td": 5281,
      "ĠVe": 5282,
      "Ġafternoon": 5283,
      "men": 5284,
      "Ġfailure": 5285,
      "dem": 5286,
      "Ġcrow": 5287,
      "Ġstone": 5288,
      "ĠRob": 5289,
      "Ġdiscl": 5290,
      "Ġschol": 5291,
      "fol": 5292,
      "Ġbeat": 5293,
      "Ġkid": 5294,
      "Ġremoved": 5295,
      "ports": 5296,
      "Ġpremium": 5297,
      "rs": 5298,
      "ĠAM": 5299,
      "ĠMatt": 5300,
      "ĠCommit": 5301,
      "Ġshut": 5302,
      "actions": 5303,
      "ĠMedical": 5304,
      "Ġfeedback": 5305,
      "Ġproviders": 5306,
      "rate": 5307,
      "Ġdoors": 5308,
      "Ġemp": 5309,
      "52": 5310,
      "ĠReal": 5311,
      "which": 5312,
      "Ġdelivered": 5313,
      "Ġtun": 5314,
      "Ġbird": 5315,
      "elines": 5316,
      "ĠProv": 5317,
      "Ġcalcul": 5318,
      "Ġthrow": 5319,
      "ĠIde": 5320,
      "Ġcoast": 5321,
      "ifications": 5322,
      "ĠJournal": 5323,
      "rim": 5324,
      "ĠMad": 5325,
      "Ġreturned": 5326,
      "lines": 5327,
      "Ġsample": 5328,
      "ogue": 5329,
      "Ġbrief": 5330,
      "Ġchair": 5331,
      "Ġsimpl": 5332,
      "Ġadults": 5333,
      "Ġasking": 5334,
      "lor": 5335,
      "Ġcomplic": 5336,
      "Ġagg": 5337,
      "Ġoccup": 5338,
      "ĠGeorge": 5339,
      "Ġanimal": 5340,
      "ums": 5341,
      "Ġring": 5342,
      "Ġsongs": 5343,
      "ĠTable": 5344,
      "Ġgather": 5345,
      "Ġsugar": 5346,
      "Ġfeels": 5347,
      "ĠIndust": 5348,
      "Ġlegisl": 5349,
      "Ġprocedures": 5350,
      "pan": 5351,
      "Ġfruit": 5352,
      "Ġguest": 5353,
      "Ġdeals": 5354,
      "ĠSociety": 5355,
      "Ġ196": 5356,
      "Ġfields": 5357,
      "life": 5358,
      "arp": 5359,
      "Ġyouth": 5360,
      "ĠSet": 5361,
      "ĠTherefore": 5362,
      "ĠDoes": 5363,
      "Ġintroduced": 5364,
      "SC": 5365,
      "vit": 5366,
      "Ġ>": 5367,
      "Ġscene": 5368,
      "eper": 5369,
      "Ġmental": 5370,
      "ĠPress": 5371,
      "ĠMaybe": 5372,
      "oration": 5373,
      "Ġseat": 5374,
      "Ġchart": 5375,
      "Ġmine": 5376,
      "ĠAtt": 5377,
      "mes": 5378,
      "iner": 5379,
      "Ġcart": 5380,
      "Ġfaster": 5381,
      "ĠMil": 5382,
      "ĠGrand": 5383,
      "how": 5384,
      "Ġinfo": 5385,
      "ĠDownload": 5386,
      "equ": 5387,
      "Ġobl": 5388,
      "Ġinterests": 5389,
      "ĠAND": 5390,
      "Ġbattery": 5391,
      "27": 5392,
      "ki": 5393,
      "win": 5394,
      "Ġrevenue": 5395,
      "ĠContact": 5396,
      "Ġmessages": 5397,
      "Ġinfluence": 5398,
      "ĠMass": 5399,
      "Ġrise": 5400,
      "Ġamb": 5401,
      "Ġannounce": 5402,
      "Ġsitting": 5403,
      "Ġrental": 5404,
      "eared": 5405,
      "ius": 5406,
      "orough": 5407,
      "ĠHill": 5408,
      "Ġuns": 5409,
      "Ġpaying": 5410,
      "Ġimproved": 5411,
      "Ġreduced": 5412,
      "Ġnotes": 5413,
      "Ġmeasures": 5414,
      "Ġstated": 5415,
      "Ġdesire": 5416,
      "Ġguys": 5417,
      "ups": 5418,
      "Ġë": 5419,
      "ĠCas": 5420,
      "Ġcharges": 5421,
      "ĠCentre": 5422,
      "Ġdogs": 5423,
      "Ġpurchased": 5424,
      "ĠAustralian": 5425,
      "ĠTechnology": 5426,
      "cont": 5427,
      "Ġcovers": 5428,
      "ĠProt": 5429,
      "Ġvaluable": 5430,
      "Ġreplacement": 5431,
      "Ġtasks": 5432,
      "Ġeventually": 5433,
      "Ġven": 5434,
      "Ġquiet": 5435,
      "Ġcarefully": 5436,
      "Ġtrial": 5437,
      "ÑĤ": 5438,
      "ada": 5439,
      "estyle": 5440,
      "Ġphil": 5441,
      "pected": 5442,
      "Ġaccounts": 5443,
      "Ġcompetitive": 5444,
      "Ġhouses": 5445,
      "Ġeffectively": 5446,
      "Ġspo": 5447,
      "ĠFood": 5448,
      "Ġlights": 5449,
      "Ġinspired": 5450,
      "ĠTem": 5451,
      "ĠCA": 5452,
      "Ġjoy": 5453,
      "Ġseemed": 5454,
      "Ġlibrary": 5455,
      "Ġagencies": 5456,
      "Ġguarantee": 5457,
      "à¤": 5458,
      "Ġgun": 5459,
      "Ġseeking": 5460,
      "Ġsignificantly": 5461,
      "Ġdoubt": 5462,
      "Ġreb": 5463,
      "ĠWestern": 5464,
      "Ġwinning": 5465,
      "Ġswim": 5466,
      "ĠSmith": 5467,
      "apos": 5468,
      "akers": 5469,
      "Ġowned": 5470,
      "Ġmonit": 5471,
      "Ġbreakfast": 5472,
      "ĠRussia": 5473,
      "Ġdistribution": 5474,
      "Ġsam": 5475,
      "ĠAL": 5476,
      "ĠMer": 5477,
      "Ġresearc": 5478,
      "Ġlicense": 5479,
      "ĠEU": 5480,
      "Ġdiscovered": 5481,
      "Ġmonthly": 5482,
      "ĠTeam": 5483,
      "Ġaffected": 5484,
      "cious": 5485,
      "vention": 5486,
      "rete": 5487,
      "Ġinput": 5488,
      "Ġrealize": 5489,
      "Ġrestaurants": 5490,
      "Ġappreciate": 5491,
      "ef": 5492,
      "itz": 5493,
      "Ġnurs": 5494,
      "ĠNOT": 5495,
      "Ġmeal": 5496,
      "Ġsupporting": 5497,
      "odies": 5498,
      "Ġplug": 5499,
      "ĠStand": 5500,
      "Ġ2000": 5501,
      "ola": 5502,
      "ibilities": 5503,
      "Ġ45": 5504,
      "Ġtables": 5505,
      "Ġentertain": 5506,
      "Ġmanufacturing": 5507,
      "Ġadministration": 5508,
      "ĠSometimes": 5509,
      "Ġsides": 5510,
      "ĠBas": 5511,
      "ĠFurther": 5512,
      "ocking": 5513,
      "ĠVir": 5514,
      "luding": 5515,
      "Ġdecades": 5516,
      "ĠStep": 5517,
      "Ġmissing": 5518,
      "Ġbond": 5519,
      "Ġdance": 5520,
      "roy": 5521,
      "ially": 5522,
      "Ġholding": 5523,
      "Ġhar": 5524,
      "Ġsequ": 5525,
      "ĠCarol": 5526,
      "Ġfixed": 5527,
      "Ġhearing": 5528,
      "tered": 5529,
      "with": 5530,
      "ĠDig": 5531,
      "Ġshares": 5532,
      "ĠInstead": 5533,
      "rome": 5534,
      "Ġdrivers": 5535,
      "while": 5536,
      "Ġaccepted": 5537,
      "Ġcommitment": 5538,
      "Ġsupported": 5539,
      "Ġfactor": 5540,
      "idden": 5541,
      "Ġbutter": 5542,
      "iveness": 5543,
      "Ġparticipants": 5544,
      "ĠAfrican": 5545,
      "TA": 5546,
      "ĠPerson": 5547,
      "Ġraise": 5548,
      "Ġcake": 5549,
      "ĠLong": 5550,
      "ffect": 5551,
      "Ġminor": 5552,
      "ĠNetwork": 5553,
      "Ġhousing": 5554,
      "ario": 5555,
      "imately": 5556,
      "Ġremote": 5557,
      "OD": 5558,
      "Ġec": 5559,
      "Ġcauses": 5560,
      "Ġconsidering": 5561,
      "Ġboost": 5562,
      "Ġregister": 5563,
      "Ġsole": 5564,
      "Ġtrail": 5565,
      "ĠReview": 5566,
      "Ġintended": 5567,
      "Ġseconds": 5568,
      "Ġtests": 5569,
      "Ġefficiency": 5570,
      "vin": 5571,
      "Ġcolle": 5572,
      "Ġmode": 5573,
      "Ġconsumer": 5574,
      "Ġnor": 5575,
      "Ġgreatest": 5576,
      "azine": 5577,
      "Ð½": 5578,
      "ownt": 5579,
      "Ġconflic": 5580,
      "Ġadministr": 5581,
      "reens": 5582,
      "Ġvit": 5583,
      "Ġhousehold": 5584,
      "Ġthr": 5585,
      "ĠSen": 5586,
      "ĠLead": 5587,
      "Ġtrend": 5588,
      "Ġparticipate": 5589,
      "ĠMusic": 5590,
      "van": 5591,
      "Ġur": 5592,
      "ĠTom": 5593,
      "Ġcalling": 5594,
      "Ġengineering": 5595,
      "Ġofficials": 5596,
      "Ġassessment": 5597,
      "Ġvary": 5598,
      "Ġglad": 5599,
      "OP": 5600,
      "mal": 5601,
      "pass": 5602,
      "ĠInte": 5603,
      "Ġepis": 5604,
      "Ġconversation": 5605,
      "ae": 5606,
      "rain": 5607,
      "Ġfreed": 5608,
      "ĠSecond": 5609,
      "Ġyes": 5610,
      "Ġprofile": 5611,
      "Ġlaunched": 5612,
      "Ġsymbol": 5613,
      "Ġtight": 5614,
      "Ġwhom": 5615,
      "ĠInvest": 5616,
      "Ġ2006": 5617,
      "esterday": 5618,
      "met": 5619,
      "Ġbound": 5620,
      "Ġwheel": 5621,
      "Ġmanual": 5622,
      "Ġvisiting": 5623,
      "Ġbringing": 5624,
      "Ġproposed": 5625,
      "gers": 5626,
      "Ġorders": 5627,
      "Ġadvis": 5628,
      "Ġbrown": 5629,
      "Ġtreated": 5630,
      "Ġperspective": 5631,
      "hone": 5632,
      "ĠNov": 5633,
      "Ġreaders": 5634,
      "Ġoccasion": 5635,
      "hand": 5636,
      "rag": 5637,
      "ograp": 5638,
      "Ġexamples": 5639,
      "Ġgrown": 5640,
      "ĠCat": 5641,
      "ĠFollow": 5642,
      "Ġunivers": 5643,
      "Ġbelief": 5644,
      "rum": 5645,
      "Ġremov": 5646,
      "Ġroute": 5647,
      "Ġsubstant": 5648,
      "umber": 5649,
      "Ġpatterns": 5650,
      "29": 5651,
      "Ġtub": 5652,
      "Ġhire": 5653,
      "Ġconsequ": 5654,
      "Ġnoted": 5655,
      "Ġflight": 5656,
      "Ġcampus": 5657,
      "Ġsizes": 5658,
      "ĠLim": 5659,
      "ĠLos": 5660,
      "Ġshap": 5661,
      "ÑĢ": 5662,
      "ĠConference": 5663,
      "ĠAtl": 5664,
      "Ġcircumst": 5665,
      "TS": 5666,
      "anish": 5667,
      "what": 5668,
      "Ġvictim": 5669,
      "48": 5670,
      "Ġped": 5671,
      "lla": 5672,
      "etime": 5673,
      "usher": 5674,
      "Ġscript": 5675,
      "Ġpharm": 5676,
      "ĠUnion": 5677,
      "Ġcreation": 5678,
      "Ġinfrastructure": 5679,
      "Ġappearance": 5680,
      "Ġcooking": 5681,
      "Ġvari": 5682,
      "Ġpump": 5683,
      "Ġrenew": 5684,
      "Ġisland": 5685,
      "ĠAward": 5686,
      "ĠVict": 5687,
      "Ġsuccessfully": 5688,
      "CH": 5689,
      "ìĿ": 5690,
      "ini": 5691,
      "Ġlock": 5692,
      "Ġbelong": 5693,
      "Ġregularly": 5694,
      "Ġhundreds": 5695,
      "Ġdumpster": 5696,
      "36": 5697,
      "Ġremaining": 5698,
      "Ġelectronic": 5699,
      "ĠRussian": 5700,
      "Ġcitizens": 5701,
      "gage": 5702,
      "rics": 5703,
      "Ġpin": 5704,
      "ĠCD": 5705,
      "oose": 5706,
      "Ġchosen": 5707,
      "Ġprepar": 5708,
      "Ġassets": 5709,
      "cling": 5710,
      "ĠHaving": 5711,
      "Ġappointment": 5712,
      "ĠIP": 5713,
      "Ġcommand": 5714,
      "Ġsymptoms": 5715,
      "eless": 5716,
      "Ġdiss": 5717,
      "Ġtaught": 5718,
      "ĠScott": 5719,
      "Ġwriter": 5720,
      "ician": 5721,
      "Ġcarried": 5722,
      "Ġreasonable": 5723,
      "Ġinnovation": 5724,
      "Ġspiritual": 5725,
      "Ġpure": 5726,
      "Ġknowing": 5727,
      "Ġdegrees": 5728,
      "Ĥ¬": 5729,
      "Ġforg": 5730,
      "Ġexcess": 5731,
      "Ġdefined": 5732,
      "ĠBi": 5733,
      "Ġpray": 5734,
      "Ġkinds": 5735,
      "ita": 5736,
      "imens": 5737,
      "respond": 5738,
      "oga": 5739,
      "phas": 5740,
      "ĠFinally": 5741,
      "Ġconvenient": 5742,
      "Ġcoach": 5743,
      "Ġfoods": 5744,
      "ĠCanadian": 5745,
      "Ġhistorical": 5746,
      "Ġclinical": 5747,
      "ĠBrown": 5748,
      "weight": 5749,
      "Ġcycle": 5750,
      "burg": 5751,
      "net": 5752,
      "Ġfulf": 5753,
      "ĠAsia": 5754,
      "Ġcutting": 5755,
      "Ġconcerned": 5756,
      "Ġsurrounding": 5757,
      "ĠCommittee": 5758,
      "cap": 5759,
      "xy": 5760,
      "ĠKore": 5761,
      "berg": 5762,
      "Ġintell": 5763,
      "Ġperfectly": 5764,
      "ĠPan": 5765,
      "Ġrough": 5766,
      "ĠYOU": 5767,
      "Ġapps": 5768,
      "Ġrecovery": 5769,
      "Ġsupplies": 5770,
      "Ġrelatively": 5771,
      "Ġhealthcare": 5772,
      "related": 5773,
      "This": 5774,
      "iors": 5775,
      "ĠFil": 5776,
      "Ġphase": 5777,
      "Ġ2005": 5778,
      "Ġillustr": 5779,
      "Ġinstitutions": 5780,
      "Ġsac": 5781,
      "edy": 5782,
      "Ġmeat": 5783,
      "erves": 5784,
      "Ġtwice": 5785,
      "Ġinstructions": 5786,
      "Ġresol": 5787,
      "Ġtrading": 5788,
      "Ġassum": 5789,
      "Ġsigned": 5790,
      "dered": 5791,
      "ĠPlus": 5792,
      "ĠOrgan": 5793,
      "ĠFamily": 5794,
      "orter": 5795,
      "ĠSand": 5796,
      "ighter": 5797,
      "Ġneighborhood": 5798,
      "inations": 5799,
      "Ġliqu": 5800,
      "Ġtruck": 5801,
      "paper": 5802,
      "Ġresolution": 5803,
      "ĠView": 5804,
      "olly": 5805,
      "Ġforest": 5806,
      "ĠGlobal": 5807,
      "ĠParty": 5808,
      "Ġdomain": 5809,
      "lets": 5810,
      "Ġju": 5811,
      "Ġsettings": 5812,
      "Ġaccurate": 5813,
      "Ġtail": 5814,
      "Ġpayments": 5815,
      "Ġbigger": 5816,
      "Ġchicken": 5817,
      "Ġportion": 5818,
      "Ġupdates": 5819,
      "Ġdrugs": 5820,
      "iest": 5821,
      "ĠRad": 5822,
      "Ġdetermined": 5823,
      "ĠEconom": 5824,
      "eries": 5825,
      "Ġsaving": 5826,
      "Ġflag": 5827,
      "Ġguy": 5828,
      "Ġsigns": 5829,
      "55": 5830,
      "ĠDi": 5831,
      "ĠShow": 5832,
      "atre": 5833,
      "Ġkit": 5834,
      "reprene": 5835,
      "Ġspaces": 5836,
      "Ġpresentation": 5837,
      "Ġgirls": 5838,
      "ĠCode": 5839,
      "Ġextract": 5840,
      "een": 5841,
      "Ġsessions": 5842,
      "ĠPeter": 5843,
      "ĠHol": 5844,
      "urban": 5845,
      "Ġhorse": 5846,
      "ĠÃ": 5847,
      "ĠLtd": 5848,
      "ĠChic": 5849,
      "Ġpregn": 5850,
      "aked": 5851,
      "ĠAdv": 5852,
      "Ġfilter": 5853,
      "Ġlabel": 5854,
      "Ġsevere": 5855,
      "ĠStudents": 5856,
      "ĠLab": 5857,
      "Ġconstantly": 5858,
      "ĠTwitter": 5859,
      "ĠIran": 5860,
      "ua": 5861,
      "ĠDid": 5862,
      "Ġagreed": 5863,
      "Ġgrade": 5864,
      "Ġmilk": 5865,
      "Ġregistration": 5866,
      "Ġiron": 5867,
      "alian": 5868,
      "Ġauthent": 5869,
      "Ġmatters": 5870,
      "osa": 5871,
      "Ġresidential": 5872,
      "ĠArts": 5873,
      "Ġpainting": 5874,
      "Ġidentified": 5875,
      "aturing": 5876,
      "Ġprop": 5877,
      "Ġmini": 5878,
      "Ġhyp": 5879,
      "hors": 5880,
      "iot": 5881,
      "Ġdelight": 5882,
      "Ġath": 5883,
      "Ġinvestigation": 5884,
      "Ġidentity": 5885,
      "Ġdollars": 5886,
      "UT": 5887,
      "mond": 5888,
      "Ġben": 5889,
      "ĠEqu": 5890,
      "ĠEarth": 5891,
      "Ġsupports": 5892,
      "Ġcoup": 5893,
      "ĠParis": 5894,
      "Ġchannel": 5895,
      "ounder": 5896,
      "Ġrisks": 5897,
      "Ġfrequently": 5898,
      "bre": 5899,
      "Ġfly": 5900,
      "ĠArab": 5901,
      "Ġkill": 5902,
      "Ġ300": 5903,
      "Ġlifestyle": 5904,
      "Ġemotional": 5905,
      "Ġang": 5906,
      "ĠKnow": 5907,
      "Ġwalls": 5908,
      "Ġguidance": 5909,
      "Ġperman": 5910,
      "poration": 5911,
      "ĠAccess": 5912,
      "ĠAmericans": 5913,
      "Ġparking": 5914,
      "Ġticket": 5915,
      "uclear": 5916,
      "but": 5917,
      "Ġpun": 5918,
      "Ġmut": 5919,
      "ĠTim": 5920,
      "ĠList": 5921,
      "ĠRev": 5922,
      "ushed": 5923,
      "ĠOld": 5924,
      "ĠJack": 5925,
      "Ġcontemporary": 5926,
      "Ġfacilit": 5927,
      "aught": 5928,
      "hus": 5929,
      "Ġtough": 5930,
      "ĠDa": 5931,
      "Ġrail": 5932,
      "Ġbegins": 5933,
      "Ġincl": 5934,
      "Ġforces": 5935,
      "ĠPin": 5936,
      "Ġengage": 5937,
      "Ġawareness": 5938,
      "Ġintegrated": 5939,
      "Ġincredible": 5940,
      ");": 5941,
      "rition": 5942,
      "Ġcooper": 5943,
      "Ġcompr": 5944,
      "Ġsurf": 5945,
      "Ġmachines": 5946,
      "39": 5947,
      "âĢĻ.": 5948,
      "ĠSign": 5949,
      "ĠOffic": 5950,
      "ĠFranc": 5951,
      "Ġluxury": 5952,
      "west": 5953,
      "isco": 5954,
      "anged": 5955,
      "Ġprogramme": 5956,
      "Ġreligious": 5957,
      "Ġstopped": 5958,
      "road": 5959,
      "ĠHand": 5960,
      "comes": 5961,
      "Ġinvestors": 5962,
      "Ġfourth": 5963,
      "Ġvirtual": 5964,
      "Ġstret": 5965,
      "ĠBur": 5966,
      "Ġrank": 5967,
      "erts": 5968,
      "Ġdefense": 5969,
      "ĠControl": 5970,
      "Ġexternal": 5971,
      "nergy": 5972,
      "Ġsubmit": 5973,
      "Ġstanding": 5974,
      "ĠDespite": 5975,
      "ĠGen": 5976,
      "ificate": 5977,
      "Ġtypical": 5978,
      "Ġprivacy": 5979,
      "Ġregulations": 5980,
      "otton": 5981,
      "ĠExt": 5982,
      "Ġsupposed": 5983,
      "Ġcharged": 5984,
      "Ġcandidates": 5985,
      "38": 5986,
      "istan": 5987,
      "Ġtrained": 5988,
      "Ġcrew": 5989,
      "Ġplanned": 5990,
      "Ġarrived": 5991,
      "cher": 5992,
      "Ġlit": 5993,
      "Ġspr": 5994,
      "Ġther": 5995,
      "Ġbattle": 5996,
      "iat": 5997,
      "Ġfro": 5998,
      "ĠCy": 5999,
      "ĠMen": 6000,
      "Ġorganic": 6001,
      "Ġwealth": 6002,
      "ĠRE": 6003,
      "Ġregional": 6004,
      "Ġholds": 6005,
      "icial": 6006,
      "ĠWomen": 6007,
      "ĠHam": 6008,
      "Ġvoc": 6009,
      "ĠTest": 6010,
      "ĠVery": 6011,
      "Ġimpressive": 6012,
      "Ġnegot": 6013,
      "Ġ^": 6014,
      "ĠHope": 6015,
      "intage": 6016,
      "Ġsheet": 6017,
      "Ġconducted": 6018,
      "Ġemphas": 6019,
      "Ġscientific": 6020,
      "Ġusual": 6021,
      "Ġstudio": 6022,
      "MC": 6023,
      "orry": 6024,
      "Ġupload": 6025,
      "ixture": 6026,
      "OC": 6027,
      "ban": 6028,
      "Ġmouth": 6029,
      "Ġplays": 6030,
      "Ġinvolve": 6031,
      "**": 6032,
      "ias": 6033,
      "ĠTri": 6034,
      "ĠHi": 6035,
      "ĠON": 6036,
      "Â°": 6037,
      "Ġrot": 6038,
      "Ġrow": 6039,
      "Ġsignal": 6040,
      "ĠAbout": 6041,
      "secut": 6042,
      "Ġmal": 6043,
      "Ġdental": 6044,
      "LA": 6045,
      "Ġvital": 6046,
      "Ġtea": 6047,
      "ensity": 6048,
      "ĠWhich": 6049,
      "Ġabsor": 6050,
      "Ġcollaboration": 6051,
      "ĠDou": 6052,
      "Ġ400": 6053,
      "oses": 6054,
      "Ġcommission": 6055,
      "endar": 6056,
      "ĠManager": 6057,
      "Ġ36": 6058,
      "Ġaccessible": 6059,
      "Ġbroken": 6060,
      "Ġexpectations": 6061,
      "Ġimplementation": 6062,
      "Ġbonus": 6063,
      "Ġgro": 6064,
      "ĠColl": 6065,
      "Ġconver": 6066,
      "abled": 6067,
      "ĠNav": 6068,
      "Ġkeeps": 6069,
      "Ġmarried": 6070,
      "Ġcloser": 6071,
      "Ġmel": 6072,
      "Ġdiverse": 6073,
      "77": 6074,
      "och": 6075,
      "spe": 6076,
      "osite": 6077,
      "Ġcorrespond": 6078,
      "appy": 6079,
      "Ġanswers": 6080,
      "Ġloans": 6081,
      "34": 6082,
      "ĠSP": 6083,
      "Ġneck": 6084,
      "ĠGal": 6085,
      "Ġalle": 6086,
      "Ġsauce": 6087,
      "Ġagents": 6088,
      "Ġpu": 6089,
      "Ġinvent": 6090,
      "Ġreceiving": 6091,
      "ossible": 6092,
      "Ġimprovement": 6093,
      "Ġhappening": 6094,
      "Ġcrowd": 6095,
      "Ġphilos": 6096,
      "ndom": 6097,
      "ĠCath": 6098,
      "ĠWel": 6099,
      "ĠHaw": 6100,
      "Ġalcohol": 6101,
      "Ġpositions": 6102,
      "ework": 6103,
      "ĠAndroid": 6104,
      "Ġequal": 6105,
      "Ġqualified": 6106,
      "Ġbowl": 6107,
      "ĠMinister": 6108,
      "look": 6109,
      "Ġelectrical": 6110,
      "âĢľ": 6111,
      "ĠLog": 6112,
      "ĠNY": 6113,
      "Ġrecorded": 6114,
      "Ġexclusive": 6115,
      "Ġfo": 6116,
      "Ġfort": 6117,
      "Ġdescription": 6118,
      "Ġchoosing": 6119,
      "ĠVirgin": 6120,
      "Ġsister": 6121,
      "Ġyellow": 6122,
      "ĠBud": 6123,
      "ĠSoft": 6124,
      "Ġmig": 6125,
      "Ġhosting": 6126,
      "SS": 6127,
      "asp": 6128,
      "Ġanx": 6129,
      "ĠGall": 6130,
      "Ġinteg": 6131,
      "Ġaffili": 6132,
      "Ġwinner": 6133,
      "Ġmoments": 6134,
      "Ġsituations": 6135,
      "ja": 6136,
      "arrow": 6137,
      "pel": 6138,
      "aren": 6139,
      "Ġspeaking": 6140,
      "Ġoperate": 6141,
      "Ġmovies": 6142,
      "Ġease": 6143,
      "Ġkick": 6144,
      "Ġcarbon": 6145,
      "Ġcounsel": 6146,
      "ait": 6147,
      "erry": 6148,
      "active": 6149,
      "Ġeveryday": 6150,
      "Ġinformed": 6151,
      "Ġorganized": 6152,
      "Ġmerch": 6153,
      "ĠAcademy": 6154,
      "Ġatmosphere": 6155,
      "Ġwid": 6156,
      "ĠTour": 6157,
      "iminal": 6158,
      "Ġadvoc": 6159,
      "ht": 6160,
      "Ġast": 6161,
      "Ġthorough": 6162,
      "ĠCEO": 6163,
      "riage": 6164,
      "Ġchain": 6165,
      "Ġprompt": 6166,
      "Ġdiam": 6167,
      "Ġrecognized": 6168,
      "Ð¾Ð": 6169,
      "Ġcable": 6170,
      "ĠHead": 6171,
      "Ġbask": 6172,
      "Ġshoes": 6173,
      "Ġmountain": 6174,
      "Ġcircumstances": 6175,
      "kin": 6176,
      "ĠMiddle": 6177,
      "ĠUl": 6178,
      "ĠQual": 6179,
      "ĠPriv": 6180,
      "ĠiPhone": 6181,
      "ĠNE": 6182,
      "ĠOrig": 6183,
      "ĠApplic": 6184,
      "Ġpartnership": 6185,
      "uts": 6186,
      "ĠFund": 6187,
      "Ġfacing": 6188,
      "Ġprotected": 6189,
      "Ġsearching": 6190,
      "ĠHotel": 6191,
      "ĠVictor": 6192,
      "ĠDen": 6193,
      "Ġclassroom": 6194,
      "Ġhardware": 6195,
      "Ġcapable": 6196,
      "ĠSU": 6197,
      "Ġvs": 6198,
      "Ġplate": 6199,
      "ĠConnect": 6200,
      "Ġchallenging": 6201,
      "Ġbread": 6202,
      "Ġmail": 6203,
      "orders": 6204,
      "ĠUnf": 6205,
      "Ġcertified": 6206,
      "Ġclosely": 6207,
      "eration": 6208,
      "ĠCH": 6209,
      "Ġassemb": 6210,
      "Ġvillage": 6211,
      "ĠFull": 6212,
      "Ġserves": 6213,
      "Ġrandom": 6214,
      "OV": 6215,
      "Ġdating": 6216,
      "ulous": 6217,
      "inder": 6218,
      "Ġdraft": 6219,
      "ĠNor": 6220,
      "Ġpoly": 6221,
      "Ġends": 6222,
      "Ġturns": 6223,
      "ĠSeries": 6224,
      "Ġapartment": 6225,
      "Ġextended": 6226,
      "ey": 6227,
      "ĠMont": 6228,
      "Ġvir": 6229,
      "Ġdistinct": 6230,
      "Ġmassive": 6231,
      "iate": 6232,
      "Ġtheory": 6233,
      "ĠTry": 6234,
      "Ġstre": 6235,
      "Ġ32": 6236,
      "Ġundert": 6237,
      "ocket": 6238,
      "ĠDisc": 6239,
      "Ġstars": 6240,
      "Ġgrass": 6241,
      "49": 6242,
      "IF": 6243,
      "ÃŃ": 6244,
      "Ġwitness": 6245,
      "Ġrid": 6246,
      "ĠJose": 6247,
      "Ġupcoming": 6248,
      "Ġarts": 6249,
      "Ġcreates": 6250,
      "Ġsurprise": 6251,
      "Ġbrowser": 6252,
      "Ġmonitoring": 6253,
      "isher": 6254,
      "Ġrear": 6255,
      "urse": 6256,
      "ĠWay": 6257,
      "Ġdesigner": 6258,
      "Ġpersonally": 6259,
      "Ġpassword": 6260,
      "working": 6261,
      "PC": 6262,
      "ĠEnergy": 6263,
      "ords": 6264,
      "ava": 6265,
      "ints": 6266,
      "Ġtiss": 6267,
      "ĠSqu": 6268,
      "irmed": 6269,
      "Ġoutstanding": 6270,
      "Ġentr": 6271,
      "Ġdifferences": 6272,
      "Ġfoundation": 6273,
      "Ġelig": 6274,
      "Ġfif": 6275,
      "ĠIC": 6276,
      "ĠFederal": 6277,
      "ĠRoom": 6278,
      "Ġpublish": 6279,
      "arsh": 6280,
      "Ġexecutive": 6281,
      "Ġrevealed": 6282,
      "Ġsatisfact": 6283,
      "ĠTre": 6284,
      "ĠCost": 6285,
      "ĠBob": 6286,
      "ĠLu": 6287,
      "Ġ48": 6288,
      "Ġtrouble": 6289,
      "Ġgear": 6290,
      "Ġcoordin": 6291,
      "Ġsavings": 6292,
      "37": 6293,
      "rid": 6294,
      "Ġnoticed": 6295,
      "Ġentered": 6296,
      "Ġtransition": 6297,
      "Ġgenerate": 6298,
      "Ġexceed": 6299,
      "Ġ2004": 6300,
      "Ġmattress": 6301,
      "ĠChildren": 6302,
      "Ġfreedom": 6303,
      "MA": 6304,
      "reland": 6305,
      "esh": 6306,
      "ĠFarm": 6307,
      "Ġapparent": 6308,
      "do": 6309,
      "uration": 6310,
      "ĠOper": 6311,
      "ĠItalian": 6312,
      "weet": 6313,
      "iked": 6314,
      "Ġscheduled": 6315,
      "osh": 6316,
      "Ġkilled": 6317,
      "anda": 6318,
      "ĠYet": 6319,
      "anges": 6320,
      "Ġtopics": 6321,
      "Ġemployment": 6322,
      "Ġfailed": 6323,
      "Ġattorney": 6324,
      "?\"": 6325,
      "Ġrom": 6326,
      "ĠCup": 6327,
      "ultural": 6328,
      "Ġshel": 6329,
      "Ġindeed": 6330,
      "Ġnine": 6331,
      "Ġcheese": 6332,
      "????": 6333,
      "Ġpleased": 6334,
      "Ġcandidate": 6335,
      "ĠAngeles": 6336,
      "Ġscholars": 6337,
      "lete": 6338,
      "Ġcompare": 6339,
      "Ġunlike": 6340,
      "Ġexpans": 6341,
      "Ġeditor": 6342,
      "Ġmeetings": 6343,
      "Ġinspiration": 6344,
      "Ñģ": 6345,
      "Ġshed": 6346,
      "Ġtechnique": 6347,
      "Ġresearchers": 6348,
      "].": 6349,
      "Ġcop": 6350,
      "Ġforced": 6351,
      "You": 6352,
      "oh": 6353,
      "Ġelection": 6354,
      "stone": 6355,
      "ilst": 6356,
      "oop": 6357,
      "Ġappeared": 6358,
      "Ġimagine": 6359,
      "Ġguidelines": 6360,
      "Ġdangerous": 6361,
      "Ġmixed": 6362,
      "Ġbes": 6363,
      "liers": 6364,
      "ĠEr": 6365,
      "ĠOpt": 6366,
      "Ġincreases": 6367,
      "ora": 6368,
      "etary": 6369,
      "ĠCre": 6370,
      "ĠAdminist": 6371,
      "ĠSpanish": 6372,
      "Ġpicked": 6373,
      "ĠBuy": 6374,
      "Ġsustainable": 6375,
      "ĠLouis": 6376,
      "va": 6377,
      "Ø§": 6378,
      "Ġnone": 6379,
      "ĠHim": 6380,
      "oster": 6381,
      "ĠThus": 6382,
      "Ġnearby": 6383,
      "SE": 6384,
      "Ġcro": 6385,
      "Ġgolf": 6386,
      "Ġvast": 6387,
      "Ġinterface": 6388,
      "Ġroutine": 6389,
      "ĠLearn": 6390,
      "Ġmoist": 6391,
      "Ġreputation": 6392,
      "Ġwhenever": 6393,
      "Ġages": 6394,
      "Ġtrig": 6395,
      "PR": 6396,
      "pes": 6397,
      "Ġsoil": 6398,
      "Ġnetworks": 6399,
      "holders": 6400,
      "Ġfolks": 6401,
      "ĠÎ": 6402,
      "Ġtab": 6403,
      "lymp": 6404,
      "ĠAri": 6405,
      "oston": 6406,
      "Ġexpenses": 6407,
      "ĠChicago": 6408,
      "Ñĸ": 6409,
      "Ġsan": 6410,
      "Ġhur": 6411,
      "ĠId": 6412,
      "ĠIreland": 6413,
      "Ġarg": 6414,
      "Ġresulting": 6415,
      "Ġdepth": 6416,
      "dden": 6417,
      "ĠRobert": 6418,
      "ĠCa": 6419,
      "ĠWil": 6420,
      "Ġparam": 6421,
      "Ġlayer": 6422,
      "yard": 6423,
      "Ġheight": 6424,
      "Ġleather": 6425,
      "asts": 6426,
      "Ġflood": 6427,
      "Ġmainly": 6428,
      "ĠHosp": 6429,
      "Ġworse": 6430,
      "Ġgraduate": 6431,
      "Ġflexible": 6432,
      "Ġmir": 6433,
      "Ġnative": 6434,
      "Ġweap": 6435,
      "ĠFile": 6436,
      "Ġmeals": 6437,
      "ĠHuman": 6438,
      "Ġentertainment": 6439,
      "Ġstorm": 6440,
      "Ġchat": 6441,
      "Ġscr": 6442,
      "Ġcolumn": 6443,
      "Ġentirely": 6444,
      "Ġfemale": 6445,
      "ĠTimes": 6446,
      "Ġstands": 6447,
      "ĠFrank": 6448,
      "Ġsudden": 6449,
      "Ġcontribute": 6450,
      "Ġunable": 6451,
      "Ġarrest": 6452,
      "ĠAuthor": 6453,
      "Ġoven": 6454,
      "oup": 6455,
      "ĠSC": 6456,
      "ĠFair": 6457,
      "achel": 6458,
      "Ġclothes": 6459,
      "Ġvend": 6460,
      "Ġstunning": 6461,
      "ĠMike": 6462,
      "ĠFig": 6463,
      "Ġentreprene": 6464,
      "ĠPlace": 6465,
      "Ġnormally": 6466,
      "orgeous": 6467,
      "Ġenthus": 6468,
      "Ġexplained": 6469,
      "ĠGeorg": 6470,
      "Ġdomin": 6471,
      "Ġcrucial": 6472,
      "TC": 6473,
      "made": 6474,
      "Ġcontrast": 6475,
      "Ġpricing": 6476,
      "Ġmedicine": 6477,
      "ographic": 6478,
      "Ġauthority": 6479,
      "Ġremoval": 6480,
      "ĠUnfortunately": 6481,
      "Ġyesterday": 6482,
      "ĠCab": 6483,
      "Ġupper": 6484,
      "Ġhandling": 6485,
      "Ġbirthday": 6486,
      "Ġlandscape": 6487,
      "46": 6488,
      "can": 6489,
      "ĠMic": 6490,
      "ĠFestival": 6491,
      "Ġsyn": 6492,
      "Ġvisited": 6493,
      "ĠEnjoy": 6494,
      "ĠMedia": 6495,
      "Ġawarded": 6496,
      "Ġskill": 6497,
      "ĠSecret": 6498,
      "ĠKey": 6499,
      "aturally": 6500,
      "Ġdestination": 6501,
      "Ġvacation": 6502,
      "Ġmechanism": 6503,
      "?âĢĿ": 6504,
      "Ġtut": 6505,
      "ĠGar": 6506,
      "ĠBeaut": 6507,
      "Ġstyles": 6508,
      "Ġobvious": 6509,
      "47": 6510,
      "celer": 6511,
      "ĠShould": 6512,
      "Ġcommunications": 6513,
      "Ġretire": 6514,
      "ĠIslam": 6515,
      "Ġtalent": 6516,
      "Ġmissed": 6517,
      "31": 6518,
      "Ġchief": 6519,
      "Ġmere": 6520,
      "ĠDisney": 6521,
      "Ġfitness": 6522,
      "Ġimmig": 6523,
      "Ġpil": 6524,
      "Ġdent": 6525,
      "roph": 6526,
      "ĠAR": 6527,
      "Ġlapt": 6528,
      "Ġbooking": 6529,
      "Ġconsistent": 6530,
      "lock": 6531,
      "Ġsin": 6532,
      "ĠMult": 6533,
      "ĠLow": 6534,
      "Ġcompens": 6535,
      "Ġbless": 6536,
      "Ġexposure": 6537,
      "Ġcaught": 6538,
      "Ġpipe": 6539,
      "ĠAud": 6540,
      "Ġproof": 6541,
      "cknow": 6542,
      "Ġauthors": 6543,
      "ĠRight": 6544,
      "Ġshops": 6545,
      "Ġpasseng": 6546,
      "Ġfeatured": 6547,
      "nic": 6548,
      "tics": 6549,
      "Ġram": 6550,
      "ĠTown": 6551,
      "stal": 6552,
      "ĠWin": 6553,
      "Ġworldwide": 6554,
      "Ġsky": 6555,
      "ĠCoast": 6556,
      "Ġreturns": 6557,
      "Ġaf": 6558,
      "ĠPac": 6559,
      "Ġord": 6560,
      "ĠThough": 6561,
      "Ġfaculty": 6562,
      "Ġcollected": 6563,
      "Ġdomestic": 6564,
      "ĠDigital": 6565,
      "Ġgrew": 6566,
      "ĠBed": 6567,
      "ĠOlymp": 6568,
      "ĠJud": 6569,
      "Ġengagement": 6570,
      "Ġeleg": 6571,
      "Ġprecise": 6572,
      "Ġcelebrate": 6573,
      "ĠSupport": 6574,
      "Ġinstrument": 6575,
      "Ġturning": 6576,
      "Ġmining": 6577,
      "Ġtrends": 6578,
      "Ġreplaced": 6579,
      "Ġdisappoint": 6580,
      "writ": 6581,
      "orable": 6582,
      "Ġdeploy": 6583,
      "ĠOk": 6584,
      "Ġmonitor": 6585,
      "Ġancient": 6586,
      "Ġsad": 6587,
      "Ġmic": 6588,
      "Ġrein": 6589,
      "ĠSea": 6590,
      "Ġmusical": 6591,
      "owntown": 6592,
      "TH": 6593,
      "Ġmuseum": 6594,
      "ĠSuch": 6595,
      "âĢĻ,": 6596,
      "Ġrecy": 6597,
      "rency": 6598,
      "Ġsilver": 6599,
      "fa": 6600,
      "Ġvul": 6601,
      "Ġdefault": 6602,
      "Ġfiled": 6603,
      "rieved": 6604,
      "Ġrecognize": 6605,
      "ĠMexico": 6606,
      "ellect": 6607,
      "ĠWebs": 6608,
      "Ġobtained": 6609,
      "arian": 6610,
      "Ġformed": 6611,
      "azz": 6612,
      "Ġdealing": 6613,
      "Ġlogo": 6614,
      "ena": 6615,
      "irty": 6616,
      "ĠLook": 6617,
      "Ġoffices": 6618,
      "away": 6619,
      "gs": 6620,
      "ĠBible": 6621,
      "ophy": 6622,
      "luded": 6623,
      "Ġsoul": 6624,
      "Ġfishing": 6625,
      "astern": 6626,
      "ĠVill": 6627,
      "Ġimpossible": 6628,
      "ushing": 6629,
      "Ġfavourite": 6630,
      "bles": 6631,
      "ras": 6632,
      "ĠDeath": 6633,
      "ĠColumb": 6634,
      "Ġdelay": 6635,
      "Ġoriginally": 6636,
      "uine": 6637,
      "Ġstim": 6638,
      "Ġfirms": 6639,
      "ĠBuilding": 6640,
      "ĠDef": 6641,
      "ĠLeague": 6642,
      "ĠTrust": 6643,
      "Ġtaxes": 6644,
      "Ġtells": 6645,
      "Ġmanaging": 6646,
      "ĠWilliam": 6647,
      "ĠDemocr": 6648,
      "Ġpreparation": 6649,
      "Ġocean": 6650,
      "alled": 6651,
      "resents": 6652,
      "Ġfairly": 6653,
      "ĠCongress": 6654,
      "Ġtiny": 6655,
      "ĠMP": 6656,
      "ĠLand": 6657,
      "Ġsuc": 6658,
      "Ġreducing": 6659,
      "Ġdepends": 6660,
      "ĠSpring": 6661,
      "atell": 6662,
      "Ġphotography": 6663,
      "Ġpercentage": 6664,
      "Ġenterprise": 6665,
      "Ġlosing": 6666,
      "Ġgifts": 6667,
      "ĠWatch": 6668,
      "ĠAccount": 6669,
      "atoes": 6670,
      "ĠIll": 6671,
      "profit": 6672,
      "Ġtooth": 6673,
      "ĠCe": 6674,
      "ĠPDF": 6675,
      "Ġhero": 6676,
      "Ġroot": 6677,
      "Ġcertification": 6678,
      "wing": 6679,
      "Ġacknow": 6680,
      "hered": 6681,
      "Ġwet": 6682,
      "lements": 6683,
      "race": 6684,
      "Ġchapter": 6685,
      "Ġtech": 6686,
      "Ġjudge": 6687,
      "Ġincorpor": 6688,
      "igan": 6689,
      "ĠRoyal": 6690,
      "duate": 6691,
      "Ġarms": 6692,
      "merce": 6693,
      "Ġconcl": 6694,
      "Ġconcrete": 6695,
      "ĠScot": 6696,
      "Ġinterpret": 6697,
      "bur": 6698,
      "ĠLib": 6699,
      "berry": 6700,
      "Ġindustries": 6701,
      "Ġstrategic": 6702,
      "Ġ..": 6703,
      "Ġfeaturing": 6704,
      "Ġimproving": 6705,
      "Ġauthorities": 6706,
      "ĠCharl": 6707,
      "Ġcrisis": 6708,
      "Ġliquid": 6709,
      "Ġpod": 6710,
      "Ġarrive": 6711,
      "He": 6712,
      "Ġbanks": 6713,
      "Ġtelling": 6714,
      "Ġlistening": 6715,
      "ca": 6716,
      "gas": 6717,
      "ĠBoston": 6718,
      "Ġconvey": 6719,
      "Ġinches": 6720,
      "Ġquote": 6721,
      "Ġempt": 6722,
      "Ġgenerated": 6723,
      "Ġstructures": 6724,
      "Ġresistance": 6725,
      "41": 6726,
      "bal": 6727,
      "idays": 6728,
      "ĠExpl": 6729,
      "nament": 6730,
      "Ġmillions": 6731,
      "alle": 6732,
      "Ġloves": 6733,
      "Ġbear": 6734,
      "ĠMax": 6735,
      "umes": 6736,
      "ĠChris": 6737,
      "Ġrealized": 6738,
      "Ġapplicable": 6739,
      "ĠEngineering": 6740,
      "Ġtur": 6741,
      "ĠNever": 6742,
      "ĠJul": 6743,
      "ĠDecor": 6744,
      "rated": 6745,
      "alog": 6746,
      "Ġrepresents": 6747,
      "Ġriver": 6748,
      "ĠObama": 6749,
      "Ġreward": 6750,
      "Ġongoing": 6751,
      "ĠFort": 6752,
      "igned": 6753,
      "ĠBeing": 6754,
      "Ġofficer": 6755,
      "Ġearned": 6756,
      "Ġpill": 6757,
      "arks": 6758,
      "Ġsynt": 6759,
      "Ġsubsequ": 6760,
      "Ġreduction": 6761,
      "Ġdiscussed": 6762,
      "Ġachieved": 6763,
      "%.": 6764,
      "lo": 6765,
      "under": 6766,
      "Ġstake": 6767,
      "Ġadventure": 6768,
      "Ġwireless": 6769,
      "Ġteen": 6770,
      "Ġedition": 6771,
      "essel": 6772,
      "Ġrenov": 6773,
      "ĠHa": 6774,
      "Ġ75": 6775,
      "inem": 6776,
      "ĠLooking": 6777,
      "Ġindex": 6778,
      "Ġsuggested": 6779,
      "Ġboys": 6780,
      "cue": 6781,
      "Ġfal": 6782,
      "aning": 6783,
      "Ġproven": 6784,
      "ĠPub": 6785,
      "ache": 6786,
      "Ġpursu": 6787,
      "Ġconfident": 6788,
      "Ġplatforms": 6789,
      "Ġdynamic": 6790,
      "uct": 6791,
      "Ġtank": 6792,
      "Ġenables": 6793,
      "Ġcontest": 6794,
      "Ġconstant": 6795,
      "Ġworkshop": 6796,
      "ml": 6797,
      "ingly": 6798,
      "omy": 6799,
      "ĠCra": 6800,
      "Ġreporting": 6801,
      "Ġultimately": 6802,
      "Ġsucceed": 6803,
      "Ġstored": 6804,
      "Ġsufficient": 6805,
      "Ġstatements": 6806,
      "Ġelev": 6807,
      "kers": 6808,
      "Ġcoc": 6809,
      "Ġclothing": 6810,
      "ĠChair": 6811,
      "ĠChief": 6812,
      "ĠInstagram": 6813,
      "ĠPrem": 6814,
      "Ġdescribe": 6815,
      "Ġbags": 6816,
      "66": 6817,
      "Ġodd": 6818,
      "illy": 6819,
      "Ġrelief": 6820,
      "Ġarchitecture": 6821,
      "Ġicon": 6822,
      "Ġshift": 6823,
      "Ġjack": 6824,
      "comm": 6825,
      "Ġveter": 6826,
      "ĠPhys": 6827,
      "Ġtreatments": 6828,
      "Ġanticip": 6829,
      "Ġlinked": 6830,
      "Ġinjuries": 6831,
      "Ġlicensed": 6832,
      "Cl": 6833,
      "UL": 6834,
      "ii": 6835,
      "sm": 6836,
      "level": 6837,
      "ĠMat": 6838,
      "izer": 6839,
      "ĠDev": 6840,
      "Ġrecording": 6841,
      "Ġathlet": 6842,
      "ppers": 6843,
      "ĠSpirit": 6844,
      "Ġprimarily": 6845,
      "GB": 6846,
      "car": 6847,
      "han": 6848,
      "Ġthin": 6849,
      "ĠPass": 6850,
      "ifies": 6851,
      "ĠEnd": 6852,
      "Ġcompliance": 6853,
      "Ġdesired": 6854,
      "Ġgrab": 6855,
      "Ġpossibility": 6856,
      "ĠExecut": 6857,
      "Ġinvolves": 6858,
      "Ġcomponent": 6859,
      "icit": 6860,
      "ĠTru": 6861,
      "Ġdeck": 6862,
      "ailable": 6863,
      "Ġguitar": 6864,
      "Ġdevelopers": 6865,
      "Ġfacts": 6866,
      "Ġfellow": 6867,
      "Ġliability": 6868,
      "Ġwearing": 6869,
      "ĠRest": 6870,
      "ĠRoman": 6871,
      "ĠStore": 6872,
      "Ġfigures": 6873,
      "Ġrecipes": 6874,
      "Ġordered": 6875,
      "Ġapproval": 6876,
      "Ġmembership": 6877,
      "Ġbeer": 6878,
      "Ġrelative": 6879,
      "Ġexpression": 6880,
      "ĠRemember": 6881,
      "pire": 6882,
      "inch": 6883,
      "Ġpapers": 6884,
      "eding": 6885,
      "agon": 6886,
      "Ġunp": 6887,
      "Ġattached": 6888,
      "Ġextension": 6889,
      "Ġprinted": 6890,
      "Ġobjects": 6891,
      "Ġelectricity": 6892,
      "ĠCurrent": 6893,
      "folio": 6894,
      "ĠCreat": 6895,
      "ĠMS": 6896,
      "Ġextent": 6897,
      "ĠAssist": 6898,
      "05": 6899,
      "Ġawards": 6900,
      "erning": 6901,
      "Ġhang": 6902,
      "ĠWeek": 6903,
      "Ġmanufacturers": 6904,
      "llo": 6905,
      "ĠItaly": 6906,
      "ĠMartin": 6907,
      "íķ": 6908,
      "Ġok": 6909,
      "Ġdust": 6910,
      "abet": 6911,
      "Ġspeech": 6912,
      "Ġconfirmed": 6913,
      "Ġyounger": 6914,
      "ĠJewish": 6915,
      "EG": 6916,
      "Ġdates": 6917,
      "Ġforth": 6918,
      "Ġaside": 6919,
      "ĠDC": 6920,
      "Ġattended": 6921,
      "Ġdefend": 6922,
      "Ġsight": 6923,
      "ĠPack": 6924,
      "Ġjew": 6925,
      "ĠYouT": 6926,
      "Ġsurprised": 6927,
      "Ġtransportation": 6928,
      "law": 6929,
      "nda": 6930,
      "enced": 6931,
      "Ġbell": 6932,
      "Ġstring": 6933,
      "Ġcommunicate": 6934,
      "Ġhistoric": 6935,
      "Ġbasket": 6936,
      "AB": 6937,
      "she": 6938,
      "Ġbodies": 6939,
      "Ġnuclear": 6940,
      "ĠCond": 6941,
      "ogen": 6942,
      "Ġentit": 6943,
      "Ġcriminal": 6944,
      "Ġhumans": 6945,
      "Ġmagic": 6946,
      "ĠHD": 6947,
      "ears": 6948,
      "agra": 6949,
      "Ġfounded": 6950,
      "Ġlessons": 6951,
      "Ġtested": 6952,
      "ennis": 6953,
      "ĠAuto": 6954,
      "ran": 6955,
      "yan": 6956,
      "ĠCO": 6957,
      "Ġinvited": 6958,
      "ĠLee": 6959,
      "Ġpassing": 6960,
      "Ġcapabilities": 6961,
      "REE": 6962,
      "Ġvegetables": 6963,
      "ĠHistory": 6964,
      "HS": 6965,
      "MP": 6966,
      "ĠFord": 6967,
      "Ġcontro": 6968,
      "Ġguard": 6969,
      "Ġavailability": 6970,
      "Ġsuperior": 6971,
      "Ġpenal": 6972,
      "case": 6973,
      "ctic": 6974,
      "Ġprove": 6975,
      "Ġsaved": 6976,
      "Ġsolve": 6977,
      "Ġlayout": 6978,
      "ĠThomas": 6979,
      "ĠLin": 6980,
      "!\"": 6981,
      "cers": 6982,
      "Ġloving": 6983,
      "Ġliked": 6984,
      "Ġreject": 6985,
      "Ġhealing": 6986,
      "Ġresume": 6987,
      "Ġcrime": 6988,
      "Ġversions": 6989,
      "Ġwidely": 6990,
      "ĠSystems": 6991,
      "Ġreferred": 6992,
      "Ġargument": 6993,
      "tr": 6994,
      "Ġlad": 6995,
      "oty": 6996,
      "uster": 6997,
      "Ġclar": 6998,
      "Ġphotograp": 6999,
      "Ġairport": 7000,
      "Ġfilms": 7001,
      "Ġimmediate": 7002,
      "ĠAdditionally": 7003,
      "ether": 7004,
      "ĠSite": 7005,
      "ĠEss": 7006,
      "Ġrig": 7007,
      "Ġbridge": 7008,
      "Ġspecialist": 7009,
      "Ġbuyers": 7010,
      "Ġrecommendations": 7011,
      "Ġmanagers": 7012,
      "Ġerrors": 7013,
      "Ġmortgage": 7014,
      "Ġvulner": 7015,
      "Ġmur": 7016,
      "ĠPoint": 7017,
      "Ġadds": 7018,
      "Ġsusp": 7019,
      "ĠSaf": 7020,
      "quir": 7021,
      "ĠOS": 7022,
      "asters": 7023,
      "Ġensuring": 7024,
      "ĠPolice": 7025,
      "EE": 7026,
      "Sh": 7027,
      "ns": 7028,
      "vy": 7029,
      "itage": 7030,
      "ĠSn": 7031,
      "Ġletters": 7032,
      "Ġcontainer": 7033,
      "Ġincreasingly": 7034,
      "Ġduty": 7035,
      "42": 7036,
      "Ġmg": 7037,
      "ĠAT": 7038,
      "Ġwithd": 7039,
      "ĠUt": 7040,
      "bel": 7041,
      "ĠSouthern": 7042,
      "ĠCro": 7043,
      "ĠMA": 7044,
      "ĠWould": 7045,
      "ĠInf": 7046,
      "Ġdecade": 7047,
      "ĠAgain": 7048,
      "worth": 7049,
      "yers": 7050,
      "ĠDub": 7051,
      "Ġchose": 7052,
      "ĠKen": 7053,
      "apore": 7054,
      "Ġflower": 7055,
      "Ġperforming": 7056,
      "Ġequipped": 7057,
      "df": 7058,
      "Ġwest": 7059,
      "Ġmixture": 7060,
      "bert": 7061,
      "Ġherself": 7062,
      "Ġrequirement": 7063,
      "Ġattractive": 7064,
      "Ġaccomplish": 7065,
      "ĠWebsite": 7066,
      "bi": 7067,
      "Ã¼": 7068,
      "ading": 7069,
      "ĠMur": 7070,
      "ĠWild": 7071,
      "uls": 7072,
      "umps": 7073,
      "Ġsomewhat": 7074,
      "Ġexperiment": 7075,
      "Ġplanet": 7076,
      "ĠMarketing": 7077,
      "Ġprinciples": 7078,
      "Ġtap": 7079,
      "quality": 7080,
      "Ġrose": 7081,
      "Ġgenuine": 7082,
      "57": 7083,
      "FC": 7084,
      "Ġhabit": 7085,
      "ĠFun": 7086,
      "ĠEst": 7087,
      "Ġproducing": 7088,
      "Ġtelevision": 7089,
      "Ġsamples": 7090,
      "ye": 7091,
      "oured": 7092,
      "Ġcontrols": 7093,
      "Ġcritic": 7094,
      "Ġsensitive": 7095,
      "Ġchannels": 7096,
      "Ġstain": 7097,
      "ĠPut": 7098,
      "Ġdoctors": 7099,
      "ĠJacks": 7100,
      "Ġscan": 7101,
      "Ġevol": 7102,
      "Ġseriously": 7103,
      "Ġslot": 7104,
      "Ġorganis": 7105,
      "Ġbottle": 7106,
      "ĠCast": 7107,
      "iments": 7108,
      "ĠPerhaps": 7109,
      "mary": 7110,
      "ĠPenn": 7111,
      "Ġvessel": 7112,
      "Ġtape": 7113,
      "Ġflour": 7114,
      "ĠTraining": 7115,
      "Ġterror": 7116,
      "erate": 7117,
      "Ġmand": 7118,
      "ĠTerm": 7119,
      "ĠCross": 7120,
      "ĠLittle": 7121,
      "ĠLibrary": 7122,
      "Ġcoat": 7123,
      "Ġtrick": 7124,
      "Ġcommonly": 7125,
      "Ġultimate": 7126,
      "aid": 7127,
      "dney": 7128,
      "tle": 7129,
      "Ġborder": 7130,
      "sters": 7131,
      "otic": 7132,
      "ĠCB": 7133,
      "Ġformal": 7134,
      "UN": 7135,
      "ĠAff": 7136,
      "Ġsmile": 7137,
      "Ġmarks": 7138,
      "Ġdiseases": 7139,
      "ĠInsurance": 7140,
      "VD": 7141,
      "site": 7142,
      "hew": 7143,
      "oral": 7144,
      "ĠEs": 7145,
      "ideo": 7146,
      "Ġenforce": 7147,
      "Ġoutcomes": 7148,
      "Ġagric": 7149,
      "Ġscope": 7150,
      "neys": 7151,
      "ĠZeal": 7152,
      "Ġpriority": 7153,
      "Ġcontrolled": 7154,
      "entle": 7155,
      "Ġoverw": 7156,
      "Ġcategories": 7157,
      "RI": 7158,
      "ĠAp": 7159,
      "eline": 7160,
      "Ġkne": 7161,
      "Ġwriters": 7162,
      "Ġregardless": 7163,
      "ĠSmall": 7164,
      "Ġillness": 7165,
      "Ġhonor": 7166,
      "front": 7167,
      "isters": 7168,
      "ĠNorthern": 7169,
      "Ġfinance": 7170,
      "Ġengaged": 7171,
      "Ġbehalf": 7172,
      "Ġfunctional": 7173,
      "ĠReport": 7174,
      "____": 7175,
      "Ġestimated": 7176,
      "Ġbare": 7177,
      "Ġgorgeous": 7178,
      "owing": 7179,
      "ĠFour": 7180,
      "Ġunex": 7181,
      "Ġ37": 7182,
      "Ġmotion": 7183,
      "Ġbelieved": 7184,
      "build": 7185,
      "Ġgallery": 7186,
      "Ġcotton": 7187,
      "ĠWalk": 7188,
      "ĠLED": 7189,
      "ĠGames": 7190,
      "Ġsmell": 7191,
      "ĠAgree": 7192,
      "Ġscheme": 7193,
      "Ġlikes": 7194,
      "Ġvictory": 7195,
      "stream": 7196,
      "Ġofficers": 7197,
      "Ġcomparison": 7198,
      "EA": 7199,
      "Ġfib": 7200,
      "Ġpermission": 7201,
      "Ġforecast": 7202,
      "Ġcapture": 7203,
      "Ġblend": 7204,
      "Ġupgrade": 7205,
      "85": 7206,
      "ĠHen": 7207,
      "Ġseats": 7208,
      "Ġvent": 7209,
      "Ġadm": 7210,
      "ĠVer": 7211,
      "Ġflash": 7212,
      "FL": 7213,
      "Ġsick": 7214,
      "Ġtransactions": 7215,
      "Ġ2001": 7216,
      "Ġmuscle": 7217,
      "Ġdiagram": 7218,
      "Ġzone": 7219,
      "Ġexception": 7220,
      "Ġhospit": 7221,
      "Ġinch": 7222,
      "Ġinstruction": 7223,
      "ĠComple": 7224,
      "Ġstrict": 7225,
      "Ġfollows": 7226,
      "Ġsuffering": 7227,
      "ĠMountain": 7228,
      "ĠWelcome": 7229,
      "uing": 7230,
      "edia": 7231,
      "ĠSel": 7232,
      "ĠSky": 7233,
      "charge": 7234,
      "iform": 7235,
      "ĠRoll": 7236,
      "Ġsuppliers": 7237,
      "Ġid": 7238,
      "Ġcute": 7239,
      "Ġcontained": 7240,
      "Ġspeaker": 7241,
      "ĠSilver": 7242,
      "II": 7243,
      "zing": 7244,
      "Ġcos": 7245,
      "ingu": 7246,
      "ĠStill": 7247,
      "ĠComput": 7248,
      "Ġpanels": 7249,
      "iverse": 7250,
      "olec": 7251,
      "ĠCarolina": 7252,
      "ĠVirginia": 7253,
      "Ġeligible": 7254,
      "Ġsail": 7255,
      "Ġhidden": 7256,
      "ĠMid": 7257,
      "Ġunderst": 7258,
      "Ġcommittee": 7259,
      "ĠZealand": 7260,
      "Ġrely": 7261,
      "Ġ150": 7262,
      "ĠThree": 7263,
      "Ġintroduction": 7264,
      "Ġexhibition": 7265,
      "ĠProfessor": 7266,
      "ĠMachine": 7267,
      "Ġsatisfaction": 7268,
      "ĠYouTube": 7269,
      "Ġfasc": 7270,
      "ĠAD": 7271,
      "Ġincident": 7272,
      "Ġtrave": 7273,
      "Ġviolence": 7274,
      "ĠIrish": 7275,
      "Ġevaluation": 7276,
      "bits": 7277,
      "Ġnarrow": 7278,
      "odel": 7279,
      "Ġintellect": 7280,
      "Ġphones": 7281,
      "Ġpromise": 7282,
      "Ġpotentially": 7283,
      "Ġframework": 7284,
      "Ġgarage": 7285,
      "ĠExecutive": 7286,
      "Ġurban": 7287,
      "Ġfestival": 7288,
      "ione": 7289,
      "asant": 7290,
      "ĠPot": 7291,
      "amps": 7292,
      "Ġattacks": 7293,
      "ĠSingapore": 7294,
      "Ġsoph": 7295,
      "Ġisol": 7296,
      "Ġtransp": 7297,
      "ĠShop": 7298,
      "class": 7299,
      "ĠJeff": 7300,
      "ĠOhio": 7301,
      "friendly": 7302,
      "02": 7303,
      "long": 7304,
      "ĠPract": 7305,
      "ĠDie": 7306,
      "Ġsomewhere": 7307,
      "Ġjustice": 7308,
      "Ġconsists": 7309,
      "Ġsubmitted": 7310,
      "Ġconcerning": 7311,
      "bra": 7312,
      "Ġinner": 7313,
      "Ġwash": 7314,
      "Ġhomeown": 7315,
      "Ġreader": 7316,
      "Ġsignature": 7317,
      "ĠConf": 7318,
      "Ġlegs": 7319,
      "Ġcookies": 7320,
      "Ġfighting": 7321,
      "cal": 7322,
      "Ġhall": 7323,
      "ĠTax": 7324,
      "Ġstir": 7325,
      "ircle": 7326,
      "ĠJones": 7327,
      "ĠChampions": 7328,
      "ĠHeart": 7329,
      "Ġpoker": 7330,
      "you": 7331,
      "Ġwarn": 7332,
      "Ġine": 7333,
      "ĠPS": 7334,
      "anger": 7335,
      "Ġattach": 7336,
      "Ġapproaches": 7337,
      "ĠOrder": 7338,
      "Ġcarrying": 7339,
      "ĠRetrieved": 7340,
      "ĠJackson": 7341,
      "ĠNon": 7342,
      "Ġrecon": 7343,
      "cover": 7344,
      "including": 7345,
      "Ġprospect": 7346,
      "Ġepisode": 7347,
      "Ġauthentic": 7348,
      "uction": 7349,
      "ĠPA": 7350,
      "Ġwalked": 7351,
      "missions": 7352,
      "then": 7353,
      "real": 7354,
      "ĠCook": 7355,
      "ĠGame": 7356,
      "Ġalumin": 7357,
      "Ġcompat": 7358,
      "Ġamounts": 7359,
      "Ġslowly": 7360,
      "Ġreligion": 7361,
      "born": 7362,
      "nce": 7363,
      "Ġdrawing": 7364,
      "Ġpermanent": 7365,
      "rants": 7366,
      "igate": 7367,
      "Ġraw": 7368,
      "Ġinsight": 7369,
      "Ġconflict": 7370,
      "Ġstretch": 7371,
      "Ġfalse": 7372,
      "sis": 7373,
      "zes": 7374,
      "zil": 7375,
      "Ġpm": 7376,
      "ican": 7377,
      "Ġnaturally": 7378,
      "Ġkil": 7379,
      "Ġlawyer": 7380,
      "ĠPrice": 7381,
      "Ġincredibly": 7382,
      "Ġroles": 7383,
      "Ġregions": 7384,
      "Ġmoves": 7385,
      "ĠSmart": 7386,
      "ulum": 7387,
      "ansas": 7388,
      "Ġtracks": 7389,
      "Ġ2003": 7390,
      "Ġalongside": 7391,
      "Ġexpansion": 7392,
      "ĠGeorgia": 7393,
      "zer": 7394,
      "Ġcharm": 7395,
      "Ġoutcome": 7396,
      "Ġintent": 7397,
      "Ġopposite": 7398,
      "Ġaccessories": 7399,
      "Ġconnections": 7400,
      "Ġrequests": 7401,
      "Ġdestroy": 7402,
      "ba": 7403,
      "Ġtall": 7404,
      "Ġcodes": 7405,
      "Ġrating": 7406,
      "Ġspin": 7407,
      "Ġexposed": 7408,
      "Ġtomorrow": 7409,
      "Ġille": 7410,
      "Ġstations": 7411,
      "Ġshots": 7412,
      "Ġsharp": 7413,
      "Ġresort": 7414,
      "Ġacts": 7415,
      "ĠCommon": 7416,
      "Ġapplying": 7417,
      "Ġbelieves": 7418,
      "ĠSummer": 7419,
      "Ġcomplicated": 7420,
      "oking": 7421,
      "iser": 7422,
      "arters": 7423,
      "Ġkm": 7424,
      "Ġbasically": 7425,
      "ĠBox": 7426,
      "oof": 7427,
      "agues": 7428,
      "Ġrefund": 7429,
      "Ġappointed": 7430,
      "Ġbreath": 7431,
      "hire": 7432,
      "Ġwra": 7433,
      "isk": 7434,
      "Ġtradem": 7435,
      "Ġtransaction": 7436,
      "Ġweekly": 7437,
      "hyd": 7438,
      "Ġexport": 7439,
      "Ġcounty": 7440,
      "Ġlists": 7441,
      "Ġhotels": 7442,
      "ĠTravel": 7443,
      "ĠIdeas": 7444,
      "ĠSEO": 7445,
      "aken": 7446,
      "Ġflo": 7447,
      "Ġcausing": 7448,
      "ĠNeed": 7449,
      "Ġflavor": 7450,
      "inent": 7451,
      "Ġmm": 7452,
      "Ġcontaining": 7453,
      "pending": 7454,
      "Ġpurchasing": 7455,
      "Ġinvolving": 7456,
      "gypt": 7457,
      "Ġstruggle": 7458,
      "08": 7459,
      "ĠWrit": 7460,
      "pection": 7461,
      "Ġvibr": 7462,
      "Ġcircuit": 7463,
      "ĠSales": 7464,
      "Ġdropped": 7465,
      "What": 7466,
      "AA": 7467,
      "GE": 7468,
      "Re": 7469,
      "ĠBa": 7470,
      "gend": 7471,
      "ĠProper": 7472,
      "Ġvisible": 7473,
      "Ġconsideration": 7474,
      "Ġfunctionality": 7475,
      "Ġneighb": 7476,
      "Ġmarked": 7477,
      "Ġtemplate": 7478,
      "Ġol": 7479,
      "Ġmold": 7480,
      "Ġhi": 7481,
      "ĠHon": 7482,
      "Ġinfect": 7483,
      "Ġenjoying": 7484,
      "Ġsending": 7485,
      "Ġpersons": 7486,
      "Ġliterally": 7487,
      "ĠLocal": 7488,
      "Ġoverwhel": 7489,
      "Ġdispos": 7490,
      "Ġexceptional": 7491,
      "Ġpreferred": 7492,
      "rich": 7493,
      "Ġusage": 7494,
      "Ġsuggests": 7495,
      "Ġhoping": 7496,
      "Ġassigned": 7497,
      "67": 7498,
      "ati": 7499,
      "ĠFed": 7500,
      "ĠRose": 7501,
      "Ġspoke": 7502,
      "Ġshouldn": 7503,
      "Ġremark": 7504,
      "Ġcareful": 7505,
      "ĠBlog": 7506,
      "Ġforever": 7507,
      "Ġrespectively": 7508,
      "01": 7509,
      "rad": 7510,
      "irts": 7511,
      "ĠBow": 7512,
      "lder": 7513,
      "Ġlect": 7514,
      "Ġenem": 7515,
      "Ġdispl": 7516,
      "Ġassume": 7517,
      "Ġ2002": 7518,
      "Ġstaying": 7519,
      "Ġboxes": 7520,
      "Ġdisplayed": 7521,
      "atellite": 7522,
      "Ã³": 7523,
      "Ġpit": 7524,
      "ĠTal": 7525,
      "Ġnewly": 7526,
      "cket": 7527,
      "Ġjoining": 7528,
      "ATION": 7529,
      "Ġnecessarily": 7530,
      "Ġtor": 7531,
      "Ġreform": 7532,
      "ĠSanta": 7533,
      "ĠHoly": 7534,
      "Ġallerg": 7535,
      "Ġcloth": 7536,
      "liament": 7537,
      "Ġcurtain": 7538,
      "Ġmemories": 7539,
      "Ġportfolio": 7540,
      "Ġsubscrib": 7541,
      "Ġcontinuing": 7542,
      "âĢ²âĢ²": 7543,
      "ĠJersey": 7544,
      "ĠRichard": 7545,
      "Ġphen": 7546,
      "Ġdivid": 7547,
      "othe": 7548,
      "amental": 7549,
      "Ġacceler": 7550,
      "Ġexpressed": 7551,
      "Ġ800": 7552,
      "ugs": 7553,
      "ĠEnvironment": 7554,
      "Ġconcepts": 7555,
      "Ġshooting": 7556,
      "date": 7557,
      "Ġ<": 7558,
      "Ġinject": 7559,
      "ĠPak": 7560,
      "ologist": 7561,
      "bing": 7562,
      "kins": 7563,
      "Ġpace": 7564,
      "anes": 7565,
      "utch": 7566,
      "ĠCR": 7567,
      "Ġunw": 7568,
      "ĠPrint": 7569,
      "Ġcrazy": 7570,
      "Pro": 7571,
      "ds": 7572,
      "Ġpink": 7573,
      "Ġyield": 7574,
      "eters": 7575,
      "ogether": 7576,
      "Ġbelt": 7577,
      "Ġservers": 7578,
      "Ġarray": 7579,
      "Ġpowder": 7580,
      "gor": 7581,
      "ership": 7582,
      "Ġrecover": 7583,
      "onto": 7584,
      "Ġlowest": 7585,
      "Ġminimal": 7586,
      "Ġtemperatures": 7587,
      "Ġdollar": 7588,
      "ĠAriz": 7589,
      "tes": 7590,
      "Ġtile": 7591,
      "Ġtons": 7592,
      "Ġlib": 7593,
      "ĠHard": 7594,
      "Ġvintage": 7595,
      "asting": 7596,
      "Ġsupplement": 7597,
      "Ġpresents": 7598,
      "Ġ1990": 7599,
      "ĠBritain": 7600,
      "Ġdreams": 7601,
      "hops": 7602,
      "ali": 7603,
      "etry": 7604,
      "iler": 7605,
      "ĠDog": 7606,
      "Ġchances": 7607,
      "ĠAndrew": 7608,
      "ĠFinancial": 7609,
      "Ġobserved": 7610,
      "Ġpleasure": 7611,
      "Ġcorrectly": 7612,
      "ĠHelp": 7613,
      "Ġempty": 7614,
      "ĠWas": 7615,
      "uling": 7616,
      "ĠYoung": 7617,
      "Ġdriven": 7618,
      "ĠSydney": 7619,
      "Ġhyper": 7620,
      "Ġdivision": 7621,
      "ĠPersonal": 7622,
      "cur": 7623,
      "Ã¤": 7624,
      "iano": 7625,
      "Ġdrinking": 7626,
      "Ġtraveling": 7627,
      "Ġinteractive": 7628,
      "LS": 7629,
      "ocation": 7630,
      "ĠRef": 7631,
      "athy": 7632,
      "ventional": 7633,
      "Ġencouraged": 7634,
      "ĠCasino": 7635,
      "ĠHospital": 7636,
      "Ġlaptop": 7637,
      "Ġentitled": 7638,
      "iams": 7639,
      "lers": 7640,
      "inn": 7641,
      "ĠBit": 7642,
      "ĠEX": 7643,
      "ardens": 7644,
      "Ġcenters": 7645,
      "EST": 7646,
      "Ġlucky": 7647,
      "ĠRam": 7648,
      "Ġdishes": 7649,
      "Ġcovering": 7650,
      "Ġpackages": 7651,
      "Ġparticipation": 7652,
      "Ġaccuracy": 7653,
      "Ġfru": 7654,
      "ĠHun": 7655,
      "Ġenroll": 7656,
      "izza": 7657,
      "ĠÂ·": 7658,
      "Ġdefinition": 7659,
      "ĠMcC": 7660,
      "ĠColorado": 7661,
      "Ġdeposit": 7662,
      "iti": 7663,
      "ĠEp": 7664,
      "Ġrising": 7665,
      "ĠStock": 7666,
      "Ġ33": 7667,
      "Ġamend": 7668,
      "Ġposting": 7669,
      "ĠMeet": 7670,
      "ĠMuslim": 7671,
      "Ġscientists": 7672,
      "Ġgraphics": 7673,
      "Ġhydro": 7674,
      "bar": 7675,
      "Ġbone": 7676,
      "Ġborrow": 7677,
      "Ġhurt": 7678,
      "that": 7679,
      "ĠJon": 7680,
      "ensus": 7681,
      "Ġbreast": 7682,
      "Ġprinting": 7683,
      "Ġoblig": 7684,
      "ĠPacific": 7685,
      "raction": 7686,
      "ĠGive": 7687,
      "Ġchecking": 7688,
      "Ġcompletion": 7689,
      "ilipp": 7690,
      "ĠArea": 7691,
      "43": 7692,
      "atics": 7693,
      "raid": 7694,
      "ĠBall": 7695,
      "ĠBang": 7696,
      "iece": 7697,
      "iversary": 7698,
      "Ġmaintained": 7699,
      "Ġobserv": 7700,
      "Ġinitiative": 7701,
      "DS": 7702,
      "itan": 7703,
      "Ġmale": 7704,
      "Ġinteraction": 7705,
      "ĠBoy": 7706,
      "Ġwhilst": 7707,
      "ĠHP": 7708,
      "riers": 7709,
      "ĠEgypt": 7710,
      "Ġrice": 7711,
      "ĠKim": 7712,
      "Ġanyway": 7713,
      "ĠStone": 7714,
      "Ġ38": 7715,
      "Ġprison": 7716,
      "Ġcoloring": 7717,
      "Ġrecognition": 7718,
      "ĠDivision": 7719,
      "!)": 7720,
      "Ġtack": 7721,
      "Ġgained": 7722,
      "ĠSus": 7723,
      "ĠEnt": 7724,
      "ributes": 7725,
      "Ġedit": 7726,
      "Ġpossess": 7727,
      "Ġlimits": 7728,
      "Ġmagazine": 7729,
      "ĠJim": 7730,
      "Ġsheets": 7731,
      "ounter": 7732,
      "pson": 7733,
      "Ġcrack": 7734,
      "Ġdamaged": 7735,
      "ĠPerform": 7736,
      "Ġspeakers": 7737,
      "Ġstreets": 7738,
      "ller": 7739,
      "Ġyard": 7740,
      "stery": 7741,
      "Ġasset": 7742,
      "Ġobst": 7743,
      "Ġobjective": 7744,
      "Ġdelivering": 7745,
      "ystem": 7746,
      "ĠTele": 7747,
      "Ġheads": 7748,
      "ĠSpain": 7749,
      "Ġcalendar": 7750,
      "ĠLearning": 7751,
      "'.": 7752,
      "Ġinn": 7753,
      "Ġye": 7754,
      "Ġstuck": 7755,
      "ĠLink": 7756,
      "Ġgrace": 7757,
      "Ġcalc": 7758,
      "ĠStudies": 7759,
      "Ġsplit": 7760,
      "Ġunexpected": 7761,
      "RS": 7762,
      "sue": 7763,
      "Ð»": 7764,
      "Ġaer": 7765,
      "ĠGarden": 7766,
      "Ġshock": 7767,
      "ĠAsian": 7768,
      "ĠClin": 7769,
      "itution": 7770,
      "Ġnutrition": 7771,
      "68": 7772,
      "If": 7773,
      "host": 7774,
      "ko": 7775,
      "ĠSports": 7776,
      "ĠWH": 7777,
      "ĠLi": 7778,
      "Ġads": 7779,
      "Ġintense": 7780,
      "Ġsetup": 7781,
      "Ġmodified": 7782,
      "ĠWithout": 7783,
      "Ġtermin": 7784,
      "Ġrevolution": 7785,
      "Ġproposal": 7786,
      "Ġswimming": 7787,
      "Ġê": 7788,
      "ĠFREE": 7789,
      "Ġmeets": 7790,
      "Ġtrim": 7791,
      "ĠBlu": 7792,
      "Ġequival": 7793,
      "ĠChem": 7794,
      "haust": 7795,
      "Ġphotographs": 7796,
      "59": 7797,
      "bell": 7798,
      "Ġblocks": 7799,
      "Ġinstant": 7800,
      "ĠProcess": 7801,
      "Ġtransmission": 7802,
      "Ġfeelings": 7803,
      "Ġeast": 7804,
      "ĠSup": 7805,
      "unior": 7806,
      "Ġneut": 7807,
      "Ġblind": 7808,
      "Ġskilled": 7809,
      "ĠGuide": 7810,
      "ĠBrazil": 7811,
      "Ġmatches": 7812,
      "ĠKingdom": 7813,
      "uma": 7814,
      "ĠNig": 7815,
      "Ġworst": 7816,
      "Ġaddresses": 7817,
      "Ġvolunteers": 7818,
      "ĠJoseph": 7819,
      "ĠArizona": 7820,
      "LY": 7821,
      "aints": 7822,
      "ĠNight": 7823,
      "ĠVan": 7824,
      "obby": 7825,
      "Ġbuff": 7826,
      "Ġdecent": 7827,
      "Ġpersonality": 7828,
      "Ġemployer": 7829,
      "Ġdebut": 7830,
      "Ġroads": 7831,
      "Ġwooden": 7832,
      "Ġpromotion": 7833,
      "ĠInterest": 7834,
      "78": 7835,
      "Ã¶": 7836,
      "Ġhole": 7837,
      "Ġdeeper": 7838,
      "ĠJac": 7839,
      "Ġnoise": 7840,
      "print": 7841,
      "Ġviewed": 7842,
      "ĠSteve": 7843,
      "Ġbid": 7844,
      "ĠToy": 7845,
      "rage": 7846,
      "ĠProm": 7847,
      "Ġprayer": 7848,
      "Ġeverywhere": 7849,
      "Ġinsert": 7850,
      "Ġdemands": 7851,
      "Ġdrag": 7852,
      "Ġhosted": 7853,
      "Ġconsumption": 7854,
      "flow": 7855,
      "Ġobviously": 7856,
      "Ġgod": 7857,
      "aya": 7858,
      "ĠEll": 7859,
      "Ġadequ": 7860,
      "ags": 7861,
      "Ġscored": 7862,
      "Ġrequested": 7863,
      "Ġintelligence": 7864,
      "An": 7865,
      "person": 7866,
      "Ġmac": 7867,
      "Ġlaugh": 7868,
      "Ġgap": 7869,
      "Ġhaz": 7870,
      "ĠLive": 7871,
      "ĠLLC": 7872,
      "Ġdesigners": 7873,
      "ĠSelect": 7874,
      "Ġvisits": 7875,
      "Ġbuyer": 7876,
      "Ġlargely": 7877,
      "Ġoccurs": 7878,
      "Ġassociation": 7879,
      "ĠSoftware": 7880,
      "racy": 7881,
      "ĠBon": 7882,
      "ulpt": 7883,
      "Ġunus": 7884,
      "Ġsecondary": 7885,
      "Ġlesson": 7886,
      "anned": 7887,
      "Ġzero": 7888,
      "Ġsuggestions": 7889,
      "Ġrepresentative": 7890,
      "Ġsurprising": 7891,
      "Ġrepeated": 7892,
      "swe": 7893,
      "iche": 7894,
      "uten": 7895,
      "ĠKitchen": 7896,
      "ĠAmong": 7897,
      "Ġ1999": 7898,
      "ĠWilliams": 7899,
      "Ġanxiety": 7900,
      "Ġunderstood": 7901,
      "58": 7902,
      "EB": 7903,
      "ipt": 7904,
      "market": 7905,
      "Ġbars": 7906,
      "ĠCome": 7907,
      "ĠMobile": 7908,
      "Ġinvestments": 7909,
      "Ġcrusher": 7910,
      "Ġbeneficial": 7911,
      "Ġdamages": 7912,
      "Ġsubjects": 7913,
      "Ġpollut": 7914,
      "Ġpul": 7915,
      "Ġmile": 7916,
      "char": 7917,
      "Ġlets": 7918,
      "Ġabuse": 7919,
      "ĠJob": 7920,
      "Ġpride": 7921,
      "Ġremained": 7922,
      "Ġstrange": 7923,
      "Ġstudying": 7924,
      "Ġstronger": 7925,
      "Ġoccurred": 7926,
      "Ġelegant": 7927,
      "mg": 7928,
      "Ġexplan": 7929,
      "Ġexplains": 7930,
      "Ġmarriage": 7931,
      "Ġcriteria": 7932,
      "ĠProfessional": 7933,
      "04": 7934,
      "xual": 7935,
      "Ġtip": 7936,
      "Ġhat": 7937,
      "Ġheating": 7938,
      "ĠFre": 7939,
      "rip": 7940,
      "ĠJenn": 7941,
      "Ġownership": 7942,
      "remony": 7943,
      "ĠQuality": 7944,
      "EP": 7945,
      "Ex": 7946,
      "cons": 7947,
      "Ġtired": 7948,
      "Ġreaction": 7949,
      "ĠSon": 7950,
      "igen": 7951,
      "Ġconvert": 7952,
      "ĠDu": 7953,
      "ĠFOR": 7954,
      "Ġmaintaining": 7955,
      "ĠCatholic": 7956,
      "bury": 7957,
      "isdom": 7958,
      "Ġtox": 7959,
      "Ġmit": 7960,
      "ĠSenior": 7961,
      "irl": 7962,
      "illiant": 7963,
      "Ġseed": 7964,
      "ĠLine": 7965,
      "Ġalter": 7966,
      "Ġ34": 7967,
      "ampion": 7968,
      "Ġjewel": 7969,
      "zed": 7970,
      "Ġtherap": 7971,
      "ura": 7972,
      "Ġstable": 7973,
      "earing": 7974,
      "Ġfunny": 7975,
      "Ġpromoting": 7976,
      "ĠModern": 7977,
      "Ġsubstantial": 7978,
      "Ġpp": 7979,
      "Ġpra": 7980,
      "Ġbaking": 7981,
      "Ġlift": 7982,
      "otive": 7983,
      "olid": 7984,
      "terior": 7985,
      "ĠFoot": 7986,
      "Ġrural": 7987,
      "ĠKar": 7988,
      "Ġdirected": 7989,
      "ĠSciences": 7990,
      "Ġpreparing": 7991,
      "Ġrepresented": 7992,
      "Ġconsultation": 7993,
      "Ġdemonstrate": 7994,
      "Ġafraid": 7995,
      "PM": 7996,
      "ashes": 7997,
      "ĠSem": 7998,
      "ĠBath": 7999,
      "ĠFox": 8000,
      "ospel": 8001,
      "aste": 8002,
      "Ġwheels": 8003,
      "ĠKids": 8004,
      "Ġaccord": 8005,
      "ĠCloud": 8006,
      "Ġfundamental": 8007,
      "ĠWorks": 8008,
      "ĠBrand": 8009,
      "abetes": 8010,
      "bration": 8011,
      "Ġfits": 8012,
      "Ġclock": 8013,
      "Ġgreatly": 8014,
      "Ġadvent": 8015,
      "Ġcertificate": 8016,
      "Ġcomputers": 8017,
      "Ġadvantages": 8018,
      "Ġhttps": 8019,
      "Ġrubber": 8020,
      "NC": 8021,
      "Ġwave": 8022,
      "ĠAlp": 8023,
      "ĠHappy": 8024,
      "anted": 8025,
      "ĠLiving": 8026,
      "Ġbull": 8027,
      "ĠSpace": 8028,
      "Ġstrongly": 8029,
      "Ġpulled": 8030,
      "bourne": 8031,
      "ĠFurthermore": 8032,
      "69": 8033,
      "Is": 8034,
      "pat": 8035,
      "inos": 8036,
      "Ġbills": 8037,
      "Ġdual": 8038,
      "Ġreact": 8039,
      "Ġplot": 8040,
      "Ġpepper": 8041,
      "lessly": 8042,
      "Ġwise": 8043,
      "ĠCON": 8044,
      "ĠVideo": 8045,
      "lude": 8046,
      "iances": 8047,
      "Ġacting": 8048,
      "Ġheaded": 8049,
      "ĠPrivate": 8050,
      "ĠAgreement": 8051,
      "Ġtill": 8052,
      "orous": 8053,
      "ĠDan": 8054,
      "Ġresid": 8055,
      "Ġediting": 8056,
      "Ġorganisation": 8057,
      "ĠJoe": 8058,
      "Ġperiods": 8059,
      "Ġfalling": 8060,
      "Ġindicate": 8061,
      "Ġconvenience": 8062,
      "Ġbench": 8063,
      "ih": 8064,
      "Ġhel": 8065,
      "Ġtracking": 8066,
      "Ġ65": 8067,
      "Ġspecified": 8068,
      "Ġdebate": 8069,
      "Ġdecrease": 8070,
      "Press": 8071,
      "jo": 8072,
      "inity": 8073,
      "itis": 8074,
      "ĠFar": 8075,
      "ĠES": 8076,
      "Ġrhy": 8077,
      "ĠNAS": 8078,
      "Ġcomplim": 8079,
      "Ġje": 8080,
      "ĠGuys": 8081,
      "Ġwarranty": 8082,
      "Ġlegislation": 8083,
      "bage": 8084,
      "Ġpounds": 8085,
      "Ġdiversity": 8086,
      "ĠTurn": 8087,
      "ppy": 8088,
      "ĠNin": 8089,
      "Ġ55": 8090,
      "phones": 8091,
      "Ġlifetime": 8092,
      "Ġfarmers": 8093,
      "gorith": 8094,
      "ĠFac": 8095,
      "ĠYe": 8096,
      "Ġcalm": 8097,
      "Ġlayers": 8098,
      "Ġsuspect": 8099,
      "ĠAnnual": 8100,
      "Ġevaluate": 8101,
      "Ġtissue": 8102,
      "As": 8103,
      "Ġpitch": 8104,
      "ĠTR": 8105,
      "ĠLy": 8106,
      "Ġ250": 8107,
      "rowse": 8108,
      "coin": 8109,
      "Ġestimate": 8110,
      "brid": 8111,
      "Ġcombine": 8112,
      "Ġfrequency": 8113,
      "ĠCustomer": 8114,
      "Ġdowntown": 8115,
      "Ġorient": 8116,
      "Ġneither": 8117,
      "Ġalt": 8118,
      "elly": 8119,
      "Ġtelephone": 8120,
      "ĠColumbia": 8121,
      "Ġwarning": 8122,
      "Ġhiring": 8123,
      "ateful": 8124,
      "ĠFriend": 8125,
      "Ġouts": 8126,
      "199": 8127,
      "Ġemails": 8128,
      "proof": 8129,
      "Ġcharacteristics": 8130,
      "ĠEveryone": 8131,
      "ĠToronto": 8132,
      "Ġpup": 8133,
      "Ġgym": 8134,
      "ĠDue": 8135,
      "ĠDani": 8136,
      "Ġalive": 8137,
      "ĠAsh": 8138,
      "mercial": 8139,
      "Ġnights": 8140,
      "Ġgranted": 8141,
      "Ġeggs": 8142,
      "sen": 8143,
      "Ġmob": 8144,
      "utter": 8145,
      "Ġhes": 8146,
      "ĠLo": 8147,
      "ruption": 8148,
      "Ġevolution": 8149,
      "Ġcarpet": 8150,
      "Ġfindings": 8151,
      "riculum": 8152,
      "Ġgenetic": 8153,
      "Ġwatched": 8154,
      "Ġrapidly": 8155,
      "Ġintellectual": 8156,
      "Ġ!": 8157,
      "Ġera": 8158,
      "Ġnarr": 8159,
      "Ġstages": 8160,
      "ĠPen": 8161,
      "ĠRo": 8162,
      "Ġunknown": 8163,
      "Ġcolours": 8164,
      "ools": 8165,
      "Ġconcentration": 8166,
      "Ġintegration": 8167,
      "books": 8168,
      "Ġmood": 8169,
      "Ġforum": 8170,
      "Ġru": 8171,
      "Ġphr": 8172,
      "Ġprogramming": 8173,
      "Ġfaced": 8174,
      "Ġtalks": 8175,
      "ĠEmploy": 8176,
      "Ġholidays": 8177,
      "heast": 8178,
      "ĠCapt": 8179,
      "sem": 8180,
      "Ġexists": 8181,
      "ĠUk": 8182,
      "acter": 8183,
      "Ġuncom": 8184,
      "Ġconsent": 8185,
      "ĠShare": 8186,
      "Ġdefine": 8187,
      "Ġpublication": 8188,
      "ĠSteel": 8189,
      "ĠCharles": 8190,
      "amic": 8191,
      "ĠHR": 8192,
      "Ġyours": 8193,
      "Ġcomprom": 8194,
      "ĠStat": 8195,
      "Ġspa": 8196,
      "onym": 8197,
      "ĠStudio": 8198,
      "Ġacquis": 8199,
      "Ġflexibility": 8200,
      "ĠMembers": 8201,
      "Ġconfiguration": 8202,
      "fall": 8203,
      "adow": 8204,
      "iana": 8205,
      "Ġlisting": 8206,
      "Ġfocuses": 8207,
      "Ġpolitics": 8208,
      "vas": 8209,
      "Ġgentle": 8210,
      "lyn": 8211,
      "imal": 8212,
      "ĠRon": 8213,
      "cycle": 8214,
      "ĠArmy": 8215,
      "Ġoperated": 8216,
      "bridge": 8217,
      "criptions": 8218,
      "----": 8219,
      "Ġvenue": 8220,
      "ĠTer": 8221,
      "ĠSection": 8222,
      "Ġchairs": 8223,
      "Ġracing": 8224,
      "Ġinjured": 8225,
      "ĠMichigan": 8226,
      "Ġcontinuous": 8227,
      "Ġhopes": 8228,
      "ĠGallery": 8229,
      "ĠAdministration": 8230,
      "ĠSecretary": 8231,
      "Ġretirement": 8232,
      "Ġtro": 8233,
      "Ġtact": 8234,
      "Ġfest": 8235,
      "ĠSar": 8236,
      "acon": 8237,
      "Ġoverse": 8238,
      "Ġpeak": 8239,
      "Ġscrew": 8240,
      "nell": 8241,
      "ĠMinistry": 8242,
      "ĠPolicy": 8243,
      "Ġdatas": 8244,
      "Ġinitially": 8245,
      "ĠQueen": 8246,
      "cific": 8247,
      "iary": 8248,
      "itative": 8249,
      "ĠWi": 8250,
      "ĠHor": 8251,
      "Ġprovision": 8252,
      "Ġproductivity": 8253,
      "Ġmedication": 8254,
      "Ġexistence": 8255,
      "Ġfault": 8256,
      "Ġreveal": 8257,
      "Ġguaranteed": 8258,
      "Ġphilosophy": 8259,
      "ĠPage": 8260,
      "Ġsemin": 8261,
      "ĠLas": 8262,
      "Ġhasn": 8263,
      "Ġstudied": 8264,
      "ieties": 8265,
      "aze": 8266,
      "Ġprivile": 8267,
      "Ġimprovements": 8268,
      "graduate": 8269,
      "Ġentrance": 8270,
      "300": 8271,
      "CT": 8272,
      "Ġyoga": 8273,
      "stract": 8274,
      "Ġexhaust": 8275,
      "ĠKn": 8276,
      "Ġinspect": 8277,
      "Ġdrawn": 8278,
      "Ġsuffer": 8279,
      "Ġlake": 8280,
      "ĠBes": 8281,
      "ĠStan": 8282,
      "Ġscores": 8283,
      "Ġcoal": 8284,
      "issions": 8285,
      "Ġcheaper": 8286,
      "ĠExcell": 8287,
      "ĠMean": 8288,
      "Ġhoriz": 8289,
      "Ġterrit": 8290,
      "hot": 8291,
      "adium": 8292,
      "ĠBul": 8293,
      "Ġseeds": 8294,
      "ĠLuc": 8295,
      "Ġabund": 8296,
      "Ġspots": 8297,
      "Ġending": 8298,
      "Ġengines": 8299,
      "Ġdistributed": 8300,
      "Ġliterature": 8301,
      "Ġvolunteer": 8302,
      "Ġbirds": 8303,
      "foot": 8304,
      "Ġfinger": 8305,
      "ĠSM": 8306,
      "ĠAG": 8307,
      "ĠPsych": 8308,
      "ĠHolly": 8309,
      "Ġsections": 8310,
      "Ġalign": 8311,
      "Ġclimb": 8312,
      "Ġcouncil": 8313,
      "ĠMoreover": 8314,
      "Ġcopyright": 8315,
      "Ġaims": 8316,
      "ĠHawai": 8317,
      "atin": 8318,
      "ĠBM": 8319,
      "Ġwanting": 8320,
      "Ġintroduce": 8321,
      "Ġbroadcast": 8322,
      "ĠFollowing": 8323,
      "Fi": 8324,
      "cure": 8325,
      "ĠØ": 8326,
      "ĠAwards": 8327,
      "ĠEC": 8328,
      "ĠEvent": 8329,
      "Ġ39": 8330,
      "Ġfinds": 8331,
      "Ġfinest": 8332,
      "Ġopens": 8333,
      "Ġtrips": 8334,
      "Ġexploring": 8335,
      "ĠPhilipp": 8336,
      "ĠJoin": 8337,
      "ĠRegard": 8338,
      "Ġranking": 8339,
      "mart": 8340,
      "Ġlies": 8341,
      "Ġweren": 8342,
      "ĠChoose": 8343,
      "Ġsubsid": 8344,
      "64": 8345,
      "page": 8346,
      "uis": 8347,
      "urities": 8348,
      "Ġstro": 8349,
      "ĠHold": 8350,
      "Ġventure": 8351,
      "Ġchampions": 8352,
      "ĠDrive": 8353,
      "OB": 8354,
      "dri": 8355,
      "empl": 8356,
      "ificial": 8357,
      "being": 8358,
      "Ġharder": 8359,
      "ĠEverything": 8360,
      "Ġinstitution": 8361,
      "days": 8362,
      "epend": 8363,
      "Ñĥ": 8364,
      "stra": 8365,
      "otal": 8366,
      "ĠOak": 8367,
      "Ġrecre": 8368,
      "Ġindoor": 8369,
      "Ġdiscip": 8370,
      "Ġtexture": 8371,
      "Ġarrival": 8372,
      "Ġcontribution": 8373,
      "Ġwithdraw": 8374,
      "Con": 8375,
      "ĠSS": 8376,
      "raq": 8377,
      "ĠRod": 8378,
      "redit": 8379,
      "Ġjur": 8380,
      "orses": 8381,
      "Ġscreens": 8382,
      "ĠShort": 8383,
      "Ġspecialists": 8384,
      "ĠMedicine": 8385,
      "Ġstatistics": 8386,
      "Ġfraud": 8387,
      "Ġadopted": 8388,
      "Ġtagged": 8389,
      "Ġratio": 8390,
      "oes": 8391,
      "ĠField": 8392,
      "Ġapplies": 8393,
      "Ġelectron": 8394,
      "Ġworkshops": 8395,
      "ĠConsider": 8396,
      "Ġeliminate": 8397,
      "bro": 8398,
      "ĠAB": 8399,
      "ĠMess": 8400,
      "Ġshirt": 8401,
      "Ġmaps": 8402,
      "ounded": 8403,
      "ĠAsk": 8404,
      "Ġsurge": 8405,
      "Ġengaging": 8406,
      "Ġequity": 8407,
      "Ġfocusing": 8408,
      "Ġcontracts": 8409,
      "Ġforgot": 8410,
      "Ġfascin": 8411,
      "Ġequivalent": 8412,
      "Ġlens": 8413,
      "ifier": 8414,
      "rible": 8415,
      "Ġchips": 8416,
      "Ġplain": 8417,
      "duction": 8418,
      "Ġthemes": 8419,
      "Ġboots": 8420,
      "Ġtemporary": 8421,
      "Ġkeyword": 8422,
      "Ġfilling": 8423,
      "Ġpatch": 8424,
      "ĠTick": 8425,
      "sts": 8426,
      "Ġalgorith": 8427,
      "odge": 8428,
      "ĠStation": 8429,
      "Ġfloors": 8430,
      "Ġ580": 8431,
      "Ġdesigning": 8432,
      "Ġdrinks": 8433,
      "Ġinitiatives": 8434,
      "Ġtum": 8435,
      "ĠBased": 8436,
      "Ġrepairs": 8437,
      "Ġparticipating": 8438,
      "Ġacquire": 8439,
      "Ġinventory": 8440,
      "Ġcul": 8441,
      "ĠDar": 8442,
      "ĠGreek": 8443,
      "Ġleague": 8444,
      "Ġfactory": 8445,
      "ĠUSB": 8446,
      "Ġchecked": 8447,
      "ĠVisit": 8448,
      "Ġenthusi": 8449,
      "icious": 8450,
      "leep": 8451,
      "Ġhate": 8452,
      "Ġorange": 8453,
      "Ġconscious": 8454,
      "Ġpubl": 8455,
      "Ġantib": 8456,
      "Ġsatisfied": 8457,
      "eras": 8458,
      "ashed": 8459,
      "Ġstood": 8460,
      "ulating": 8461,
      "awa": 8462,
      "Ġbrush": 8463,
      "Ġutilize": 8464,
      "Ġuniversities": 8465,
      "ji": 8466,
      "making": 8467,
      "Ñķ": 8468,
      "acious": 8469,
      "ĠThink": 8470,
      "Ġfrustr": 8471,
      "Ġacquired": 8472,
      "ĠSafety": 8473,
      "UD": 8474,
      "tical": 8475,
      "Ġlatter": 8476,
      "ĠDVD": 8477,
      "ĠRay": 8478,
      "ĠRights": 8479,
      "osc": 8480,
      "Ġutility": 8481,
      "ĠMrs": 8482,
      "Ġcasual": 8483,
      "ĠGolden": 8484,
      "Ġspectac": 8485,
      "ĠVillage": 8486,
      "burgh": 8487,
      "inery": 8488,
      "Ġpad": 8489,
      "Ġdil": 8490,
      "Ġgiant": 8491,
      "ĠHou": 8492,
      "ĠDun": 8493,
      "emed": 8494,
      "ĠVar": 8495,
      "Ġovernight": 8496,
      "Ġmuscles": 8497,
      "Ġcreativity": 8498,
      "Ġceiling": 8499,
      "Ġclaimed": 8500,
      "Ġweapons": 8501,
      "Ġconclusion": 8502,
      "Don": 8503,
      "po": 8504,
      "itate": 8505,
      "Ġham": 8506,
      "lled": 8507,
      "Ġresidence": 8508,
      "Ġemployed": 8509,
      "ĠContin": 8510,
      "Ġquotes": 8511,
      "dale": 8512,
      "gments": 8513,
      "iability": 8514,
      "mo": 8515,
      "Ġbat": 8516,
      "ĠDJ": 8517,
      "ĠEastern": 8518,
      "ĠImage": 8519,
      "Ġimplemented": 8520,
      "rat": 8521,
      "uous": 8522,
      "izz": 8523,
      "Ġboards": 8524,
      "Ġprotocol": 8525,
      "!!!!": 8526,
      "annel": 8527,
      "Ġpacked": 8528,
      "ĠSwed": 8529,
      "iac": 8530,
      "ouch": 8531,
      "ĠMah": 8532,
      "Ġasp": 8533,
      "ĠKent": 8534,
      "assion": 8535,
      "ĠLevel": 8536,
      "ĠPrime": 8537,
      "ĠJohnson": 8538,
      "Ġtalked": 8539,
      "Ġorganisations": 8540,
      "Ġillegal": 8541,
      "EF": 8542,
      "wan": 8543,
      "Ġsought": 8544,
      "itable": 8545,
      "alysis": 8546,
      "ĠSav": 8547,
      "igent": 8548,
      "amber": 8549,
      "ĠPo": 8550,
      "unicip": 8551,
      "Ġinsights": 8552,
      "ĠForce": 8553,
      "iki": 8554,
      "Ġsophist": 8555,
      "Ġbab": 8556,
      "ĠCut": 8557,
      "Ġcompact": 8558,
      "Ġspark": 8559,
      "aka": 8560,
      "Ġuncertain": 8561,
      "ĠMotor": 8562,
      "ĠKorea": 8563,
      "Ġalleged": 8564,
      "press": 8565,
      "Ġlie": 8566,
      "ĠTa": 8567,
      "ĠNorm": 8568,
      "Ġblank": 8569,
      "Ġpersonnel": 8570,
      "ĠWorking": 8571,
      "Ġexamination": 8572,
      "Ġopinions": 8573,
      "ĠConstruction": 8574,
      "Ġcoupon": 8575,
      "Ġcompensation": 8576,
      "79": 8577,
      "oices": 8578,
      "Ġdough": 8579,
      "Ġsees": 8580,
      "ĠGro": 8581,
      "asted": 8582,
      "Ġuniform": 8583,
      "Ġreturning": 8584,
      "Ġoperator": 8585,
      "Ġsalad": 8586,
      "Ġceremony": 8587,
      "limited": 8588,
      "Ġregulatory": 8589,
      "09": 8590,
      "Ġloyal": 8591,
      "ĠFather": 8592,
      "oper": 8593,
      "Ġintention": 8594,
      "Ġattending": 8595,
      "Ġdurable": 8596,
      "quis": 8597,
      "Ġ1000": 8598,
      "ĠOcean": 8599,
      "teen": 8600,
      "Ġplane": 8601,
      "ĠAdam": 8602,
      "ESS": 8603,
      "Ġmerely": 8604,
      "ML": 8605,
      "iology": 8606,
      "ĠIraq": 8607,
      "ĠLind": 8608,
      "Ġconserv": 8609,
      "Ġentering": 8610,
      "ĠWithin": 8611,
      "Ġfaces": 8612,
      "Ġdeeply": 8613,
      "Ġtitles": 8614,
      "Ġresolve": 8615,
      "06": 8616,
      "Ġpocket": 8617,
      "Ġreception": 8618,
      "Ġnom": 8619,
      "Ġcourts": 8620,
      "Ġimportantly": 8621,
      "Ġelected": 8622,
      "ERS": 8623,
      "ĠBelow": 8624,
      "%,": 8625,
      "ila": 8626,
      "Ġprohib": 8627,
      "Ġrelating": 8628,
      "Ġinvite": 8629,
      "Ġlocks": 8630,
      "Ġoils": 8631,
      "Ġemotions": 8632,
      "ho": 8633,
      "ĠCS": 8634,
      "ĠPict": 8635,
      "estone": 8636,
      "Ġque": 8637,
      "Ġsculpt": 8638,
      "Ġprescription": 8639,
      "Ġrefrig": 8640,
      "Ġcompete": 8641,
      "Ġresponses": 8642,
      "Ġmeaningful": 8643,
      "ĠProducts": 8644,
      "Ġdisplays": 8645,
      "ĠSupreme": 8646,
      "TR": 8647,
      "tic": 8648,
      "Ġsed": 8649,
      "Ġcats": 8650,
      "Ġreaching": 8651,
      "Ġgaming": 8652,
      "ĠCli": 8653,
      "ĠRen": 8654,
      "ĠLyn": 8655,
      "Ġraising": 8656,
      "Ġnewspaper": 8657,
      "Ġtargeted": 8658,
      "ĠWordPress": 8659,
      "ĠPhoto": 8660,
      "ĠSquare": 8661,
      "Ġsatellite": 8662,
      "Ġbatt": 8663,
      "star": 8664,
      "ĠNic": 8665,
      "terest": 8666,
      "Ġprofessor": 8667,
      "Ġlaid": 8668,
      "Ġamongst": 8669,
      "Ġmassage": 8670,
      "Ġessentially": 8671,
      "Ġmountains": 8672,
      "Ġsurvive": 8673,
      "htt": 8674,
      "Ġtone": 8675,
      "Ġhook": 8676,
      "Ġinspection": 8677,
      "Ġmodule": 8678,
      "ĠPlant": 8679,
      "Ġaircraft": 8680,
      "Ġhighlights": 8681,
      "Ġdiagnosis": 8682,
      "ĠStrateg": 8683,
      "Ġfleet": 8684,
      "ĠFrancisco": 8685,
      "tail": 8686,
      "Ðº": 8687,
      "Ġsorry": 8688,
      "Ġwins": 8689,
      "Ġcock": 8690,
      "Ġhits": 8691,
      "ceived": 8692,
      "Ġboot": 8693,
      "Ġloose": 8694,
      "Ġconcert": 8695,
      "vironments": 8696,
      "Ġnegoti": 8697,
      "ĠScotland": 8698,
      "UM": 8699,
      "hour": 8700,
      "rif": 8701,
      "imp": 8702,
      "ĠTheatre": 8703,
      "ĠGPS": 8704,
      "Ġfewer": 8705,
      "Ġpossibilities": 8706,
      "Ġlegit": 8707,
      "Ġheavily": 8708,
      "Ġmolec": 8709,
      "ĠCand": 8710,
      "Ġimpression": 8711,
      "Ġtwenty": 8712,
      "Ġshell": 8713,
      "ĠExam": 8714,
      "Ġpackaging": 8715,
      "Ġautomatic": 8716,
      "Ġdepression": 8717,
      "Ġgraphic": 8718,
      "56": 8719,
      "CL": 8720,
      "cor": 8721,
      "rets": 8722,
      "ials": 8723,
      "Ġpermit": 8724,
      "Ġwondering": 8725,
      "Ġcelebration": 8726,
      "ĠInterior": 8727,
      "imensions": 8728,
      "Ġvendors": 8729,
      "There": 8730,
      "Ġbub": 8731,
      "Ġchildhood": 8732,
      "rooms": 8733,
      "Ġcooperation": 8734,
      "AY": 8735,
      "Ġbunch": 8736,
      "Ġmild": 8737,
      "una": 8738,
      "Ġlease": 8739,
      "Ġuniverse": 8740,
      "Ġspray": 8741,
      "Ġprize": 8742,
      "ĠChristians": 8743,
      "ucky": 8744,
      "Ġmeasured": 8745,
      "Ġtrusted": 8746,
      "ĠAvailable": 8747,
      "Ġstainless": 8748,
      "Ġtube": 8749,
      "Ġhub": 8750,
      "Ġnorthern": 8751,
      "ifully": 8752,
      "Ġseal": 8753,
      "Ġsegment": 8754,
      "Ġrecruit": 8755,
      "Ġsmoke": 8756,
      "ĠBell": 8757,
      "Ġinvesting": 8758,
      "Ġaccounting": 8759,
      "Ġexamine": 8760,
      "Ġstrike": 8761,
      "amsung": 8762,
      "ĠExpress": 8763,
      "ĠProtection": 8764,
      "Ġjuice": 8765,
      "Ġsuddenly": 8766,
      "800": 8767,
      "giving": 8768,
      "Ġvert": 8769,
      "Ġgene": 8770,
      "child": 8771,
      "ĠDom": 8772,
      "ĠDrag": 8773,
      "ĠFact": 8774,
      "ĠNO": 8775,
      "Ġdecline": 8776,
      "Ġequally": 8777,
      "Ġvisitor": 8778,
      "ĠStudent": 8779,
      "Ġpassionate": 8780,
      "Ġrarely": 8781,
      "Ġhoney": 8782,
      "adel": 8783,
      "sell": 8784,
      "ĠDNA": 8785,
      "udi": 8786,
      "agers": 8787,
      "Ġindicated": 8788,
      "Ġdirectors": 8789,
      "Ġtrem": 8790,
      "aska": 8791,
      "Ġstrengthen": 8792,
      "ĠModel": 8793,
      "athered": 8794,
      "Ġnob": 8795,
      "Ġgate": 8796,
      "owa": 8797,
      "ĠLA": 8798,
      "andon": 8799,
      "ĠKat": 8800,
      "Ġspir": 8801,
      "Ġsafely": 8802,
      "ĠConsult": 8803,
      "ĠVegas": 8804,
      "aters": 8805,
      "isd": 8806,
      "ĠWr": 8807,
      "employ": 8808,
      "ĠOil": 8809,
      "Ġflights": 8810,
      "Ġcomplement": 8811,
      "ounge": 8812,
      "ĠJustice": 8813,
      "ĠQuest": 8814,
      "ĠAutom": 8815,
      "Ġgender": 8816,
      "Ġconsequences": 8817,
      "Ġmirror": 8818,
      "fers": 8819,
      "mith": 8820,
      "Ġfiber": 8821,
      "Ġrede": 8822,
      "igs": 8823,
      "ĠMD": 8824,
      "ĠLabor": 8825,
      "ĠJord": 8826,
      "Ġopposition": 8827,
      "Ġbreaking": 8828,
      "Ġgovernments": 8829,
      "Ġescape": 8830,
      "Ġensures": 8831,
      "ĠCorporation": 8832,
      "rec": 8833,
      "encing": 8834,
      "ĠBB": 8835,
      "ifting": 8836,
      "Ġseam": 8837,
      "Ġvine": 8838,
      "ĠLew": 8839,
      "osph": 8840,
      "agen": 8841,
      "grade": 8842,
      "Ġobjectives": 8843,
      "Ġlanguages": 8844,
      "07": 8845,
      "looking": 8846,
      "liances": 8847,
      "Ġdim": 8848,
      "Ġlaser": 8849,
      "ĠCub": 8850,
      "ĠCooper": 8851,
      "ador": 8852,
      "Ġheaven": 8853,
      "ĠViet": 8854,
      "Ġviewing": 8855,
      "Ġrespective": 8856,
      "Ġbehavi": 8857,
      "Ġmistake": 8858,
      "Ġmistakes": 8859,
      "Ġcolleagues": 8860,
      "Ġfing": 8861,
      "ĠWinter": 8862,
      "ĠHur": 8863,
      "umer": 8864,
      "ĠGene": 8865,
      "ĠStra": 8866,
      "Ġsupplied": 8867,
      "ĠAnaly": 8868,
      "Ġdirections": 8869,
      "anna": 8870,
      "Ġpurchases": 8871,
      "Ġrepresentatives": 8872,
      "Ġtargets": 8873,
      "ĠALL": 8874,
      "ĠLimited": 8875,
      "xygen": 8876,
      "uan": 8877,
      "Ġstability": 8878,
      "Ġenvironments": 8879,
      "ĠUr": 8880,
      "Ġaged": 8881,
      "Ġproduces": 8882,
      "Ġgrateful": 8883,
      "Ġcontractors": 8884,
      "Ġthousand": 8885,
      "Ġvirtually": 8886,
      "Ġaluminum": 8887,
      "Pl": 8888,
      "ige": 8889,
      "ĠMs": 8890,
      "ĠBand": 8891,
      "Ġrelation": 8892,
      "ĠComb": 8893,
      "Ġ64": 8894,
      "Ġheading": 8895,
      "Ġrepresentation": 8896,
      "Ġfalls": 8897,
      "Ġflooring": 8898,
      "ĠAirport": 8899,
      "ĠSimply": 8900,
      "Ġconvin": 8901,
      "Ġscratch": 8902,
      "CE": 8903,
      "HA": 8904,
      "IK": 8905,
      "Ġhanging": 8906,
      "Ġthri": 8907,
      "rog": 8908,
      "Ġrefe": 8909,
      "Ġriding": 8910,
      "ĠOK": 8911,
      "Ġanymore": 8912,
      "Ġkeys": 8913,
      "Ġattitude": 8914,
      "ĠLeg": 8915,
      "Ġputs": 8916,
      "Ġcaps": 8917,
      "Ġdrain": 8918,
      "ĠCountry": 8919,
      "Ġarrangements": 8920,
      "WS": 8921,
      "Ġsen": 8922,
      "atile": 8923,
      "icity": 8924,
      "Ġhabits": 8925,
      "ocracy": 8926,
      "ghan": 8927,
      "ĠPrior": 8928,
      "Ġentrepreneurs": 8929,
      "Be": 8930,
      "PN": 8931,
      "tim": 8932,
      "ĠMother": 8933,
      "ĠFa": 8934,
      "ĠOx": 8935,
      "Ġ1980": 8936,
      "Ġformula": 8937,
      "Ġbeds": 8938,
      "ĠPartners": 8939,
      "iscal": 8940,
      "Ġprinciple": 8941,
      "Ġconstructed": 8942,
      "ĠMelbourne": 8943,
      "!âĢĿ": 8944,
      "Ã¢": 8945,
      "Ġsouthern": 8946,
      "Ġought": 8947,
      "olis": 8948,
      "icted": 8949,
      "Ġfinishing": 8950,
      "ĠAlways": 8951,
      "Ġdrives": 8952,
      "theless": 8953,
      "ĠBarb": 8954,
      "Ġholes": 8955,
      "Ġattempts": 8956,
      "ĠBeautiful": 8957,
      "Ġwake": 8958,
      "Ġcord": 8959,
      "Ġfitted": 8960,
      "Ġflying": 8961,
      "Ġtender": 8962,
      "orship": 8963,
      "Ġrefuge": 8964,
      "Ġoppon": 8965,
      "ĠContract": 8966,
      "Ġencounter": 8967,
      "Ġtalented": 8968,
      "Ġdocumentation": 8969,
      "ĠMeanwhile": 8970,
      "arry": 8971,
      "ĠSave": 8972,
      "through": 8973,
      "aret": 8974,
      "Ġaccum": 8975,
      "Ġbroke": 8976,
      "Ġnetworking": 8977,
      "ĠStudy": 8978,
      "ĠUser": 8979,
      "Ġmathem": 8980,
      "Ġrepeat": 8981,
      "Ġwaters": 8982,
      "Ġrobust": 8983,
      "Ġpodcast": 8984,
      "Ġenforcement": 8985,
      "isa": 8986,
      "ĠIM": 8987,
      "step": 8988,
      "abil": 8989,
      "Ġbackup": 8990,
      "Ġcurriculum": 8991,
      "Ġtournament": 8992,
      "Ġsentence": 8993,
      "Ġpowers": 8994,
      "Ġphenomen": 8995,
      "Ġconventional": 8996,
      "Ġworship": 8997,
      "ogy": 8998,
      "Ġlocally": 8999,
      "Ġsurely": 9000,
      "Ġcrash": 9001,
      "Ġprotecting": 9002,
      "Ġexclus": 9003,
      "ffective": 9004,
      "Ġsubsequent": 9005,
      "Ġfruits": 9006,
      "lined": 9007,
      "Ġwisdom": 9008,
      "ĠRom": 9009,
      "Ġincent": 9010,
      "aza": 9011,
      "ĠConc": 9012,
      "Ġscenes": 9013,
      "Ġvictims": 9014,
      "ĠOfficer": 9015,
      "achelor": 9016,
      "Ġrhyth": 9017,
      "86": 9018,
      "DP": 9019,
      "mers": 9020,
      "onom": 9021,
      "Ġpor": 9022,
      "Ġna": 9023,
      "oos": 9024,
      "ouses": 9025,
      "Ġcurrency": 9026,
      "Ġgenerations": 9027,
      "Ġdelivers": 9028,
      "Ġconsistently": 9029,
      "Ġpregnancy": 9030,
      "Ar": 9031,
      "power": 9032,
      "Ġproport": 9033,
      "ĠEasy": 9034,
      "Ġremoving": 9035,
      "Ġedited": 9036,
      "ĠAgency": 9037,
      "Ġburning": 9038,
      "Ġaccordance": 9039,
      "89": 9040,
      "Ġaest": 9041,
      "Ġwestern": 9042,
      "Ġyards": 9043,
      "style": 9044,
      "ĠFL": 9045,
      "Ġcha": 9046,
      "ropical": 9047,
      "ĠBroad": 9048,
      "visor": 9049,
      "ĠPakistan": 9050,
      "swered": 9051,
      "Ġcrown": 9052,
      "ĠSA": 9053,
      "abling": 9054,
      "Ġsear": 9055,
      "Ġcomposition": 9056,
      "Ġworkplace": 9057,
      "Ġretain": 9058,
      "Ġgenerating": 9059,
      "Ġdiabetes": 9060,
      "ĠElectric": 9061,
      "Ġnursing": 9062,
      "Ġapparently": 9063,
      "VER": 9064,
      "Ġinex": 9065,
      "Ġhack": 9066,
      "Ġranging": 9067,
      "Ġadj": 9068,
      "sole": 9069,
      "Ġprime": 9070,
      "ĠRepair": 9071,
      "ILL": 9072,
      "%)": 9073,
      "For": 9074,
      "greg": 9075,
      "rection": 9076,
      "Ġangle": 9077,
      "ĠHas": 9078,
      "Ġexplo": 9079,
      "Ġfireplace": 9080,
      "holder": 9081,
      "Ġclosing": 9082,
      "Ġrestricted": 9083,
      "Ġaccommodation": 9084,
      "ĠLatin": 9085,
      "Ġunusual": 9086,
      "door": 9087,
      "oft": 9088,
      "Ġcaut": 9089,
      "Ġpets": 9090,
      "ĠEmer": 9091,
      "Ġabilities": 9092,
      "Ġresident": 9093,
      "Ġperm": 9094,
      "Ġraces": 9095,
      "Ġprofits": 9096,
      "ĠIndepend": 9097,
      "Ġanniversary": 9098,
      "axy": 9099,
      "ĠPrim": 9100,
      "Ġexpanded": 9101,
      "Ġparameters": 9102,
      "Ġordinary": 9103,
      "CP": 9104,
      "Sp": 9105,
      "UI": 9106,
      "Ġpicking": 9107,
      "Ġdess": 9108,
      "ĠDO": 9109,
      "Ġcontents": 9110,
      "ludes": 9111,
      "Ġfinancing": 9112,
      "Ġcontacts": 9113,
      "Ġvolt": 9114,
      "Ġcontractor": 9115,
      "ĠGlass": 9116,
      "Ġmechanical": 9117,
      "Ġaggreg": 9118,
      "',": 9119,
      "rick": 9120,
      "sized": 9121,
      "etch": 9122,
      "ĠSale": 9123,
      "utical": 9124,
      "ĠCru": 9125,
      "rape": 9126,
      "iffe": 9127,
      "Ġlegend": 9128,
      "oding": 9129,
      "Ġdiscussions": 9130,
      "stein": 9131,
      "Ġdesktop": 9132,
      "Ġadministrative": 9133,
      "Ġtoile": 9134,
      "ĠAve": 9135,
      "ilton": 9136,
      "oli": 9137,
      "Ġoral": 9138,
      "Ġalarm": 9139,
      "ĠKa": 9140,
      "Ġovercome": 9141,
      "ĠUnivers": 9142,
      "Ġletting": 9143,
      "ĠiOS": 9144,
      "Ġcompetitors": 9145,
      "regon": 9146,
      "Ġaccommodate": 9147,
      "Ġpilot": 9148,
      "ĠDaniel": 9149,
      "Bl": 9150,
      "vals": 9151,
      "ĠSher": 9152,
      "ĠPop": 9153,
      "ĠBase": 9154,
      "Ġsofa": 9155,
      "Ġpermitted": 9156,
      "Ġtwist": 9157,
      "Ġcolon": 9158,
      "Ġdeveloper": 9159,
      "Ġpainted": 9160,
      "Ġ1998": 9161,
      "Ġsmartphone": 9162,
      "tw": 9163,
      "ĠSD": 9164,
      "uset": 9165,
      "ĠCivil": 9166,
      "Ġchronic": 9167,
      "Ġadmit": 9168,
      "ultane": 9169,
      "ĠAltern": 9170,
      "Ġconnecting": 9171,
      "Ġlawyers": 9172,
      "Ġsteam": 9173,
      "Ġdiscounts": 9174,
      "run": 9175,
      "eness": 9176,
      "Ġgal": 9177,
      "ĠAction": 9178,
      "Ġ($": 9179,
      "Ġadmin": 9180,
      "Ġinstantly": 9181,
      "ĠSeveral": 9182,
      "Ġ95": 9183,
      "Ġsolo": 9184,
      "Ġstruggling": 9185,
      "ĠStandard": 9186,
      "ĠComputer": 9187,
      "Ġcompatible": 9188,
      "Ġcher": 9189,
      "Ġdies": 9190,
      "Ġhorses": 9191,
      "Ġloud": 9192,
      "ĠSix": 9193,
      "ĠNatural": 9194,
      "Ġamen": 9195,
      "ĠFront": 9196,
      "Ġexperiencing": 9197,
      "Ġassistant": 9198,
      "Ġmanufactured": 9199,
      "Ġcampaigns": 9200,
      "Ġtemplates": 9201,
      "Ġfulfill": 9202,
      "ĠHouston": 9203,
      "hr": 9204,
      "Ġtie": 9205,
      "erator": 9206,
      "aded": 9207,
      "ĠMap": 9208,
      "ĠWant": 9209,
      "Ġconj": 9210,
      "Ġclicking": 9211,
      "Ġimper": 9212,
      "Ġreply": 9213,
      "Ġresulted": 9214,
      "ĠExchange": 9215,
      "Ġessays": 9216,
      "Ġtourist": 9217,
      "Ġrepresenting": 9218,
      "ĠBrother": 9219,
      "Ġcontributions": 9220,
      "ĠForest": 9221,
      ".;": 9222,
      "wall": 9223,
      "wear": 9224,
      "inar": 9225,
      "Ġcater": 9226,
      "Ġpills": 9227,
      "ĠCool": 9228,
      "gel": 9229,
      "ĠDur": 9230,
      "Ġlemon": 9231,
      "ĠChall": 9232,
      "ĠChapter": 9233,
      "ĠAlong": 9234,
      "Ġhandy": 9235,
      "Ġpatio": 9236,
      "ĠPharm": 9237,
      "Ġcuts": 9238,
      "Ġcollections": 9239,
      "Ġcruise": 9240,
[...]
